<unk>	0
<s>	0
</s>	0
్	-3.74613
ు	-3.85206
ి	-3.98613
ని	-4.31042
▁	-4.4551
ం	-4.52354
లో	-4.6261
ను	-4.64724
గా	-4.70122
కు	-4.72079
స్	-4.7385
▁ఈ	-4.74951
ారు	-4.75819
▁లో	-5.01309
ే	-5.0335
తో	-5.13553
ా	-5.23079
న	-5.34135
ర్	-5.41507
లు	-5.43
▁‘	-5.45462
ీ	-5.55059
ల్	-5.57567
కి	-5.60747
పై	-5.62917
ంగా	-5.64444
న్	-5.66719
ింది	-5.67008
ాన్ని	-5.67545
’	-5.69408
ానికి	-5.76547
▁ఆ	-5.77058
నే	-5.77939
ూ	-5.81247
▁ఆయన	-5.92055
▁సినిమా	-5.92803
▁న	-5.9821
▁అని	-5.99332
▁కు	-6.0196
▁తో	-6.02354
ాడు	-6.02695
▁నుంచ	-6.04205
▁కూడా	-6.05453
▁ను	-6.07228
ల	-6.08486
ిన	-6.08654
ింగ్	-6.10447
▁వ	-6.15763
క	-6.15918
క్	-6.16441
ట్	-6.26558
త	-6.26722
▁స	-6.26753
▁తెలిప	-6.28957
▁ఓ	-6.29531
ో	-6.3358
ంది	-6.34799
▁చేశారు	-6.35255
▁తన	-6.36527
▁క	-6.38403
వ	-6.39346
డు	-6.41976
ర	-6.45464
▁ఉన్న	-6.49153
▁న్యూఢిల్లీ	-6.5227
▁అ	-6.52868
▁చేసిన	-6.54762
▁చెప్పారు	-6.55556
▁గా	-6.55893
ేందుకు	-6.574
▁‘‘	-6.57837
’’	-6.59963
రు	-6.61016
య	-6.61526
ప	-6.6402
▁ఎ	-6.64265
డ	-6.65532
▁ప	-6.66584
ట	-6.66822
▁త	-6.67435
▁భారత	-6.70385
ాయి	-6.71005
న్నారు	-6.72072
మ	-6.72215
గ	-6.72737
▁బ	-6.73559
చ	-6.74492
న్న	-6.75483
▁మ	-6.75488
▁విడుదల	-6.75923
డ్	-6.7695
ది	-6.77307
▁కేంద్ర	-6.78211
▁రూ	-6.78379
▁ల	-6.78894
▁ఒక	-6.7909
లను	-6.7935
▁అయితే	-6.80472
▁మాట్లాడుతూ	-6.81625
▁చిత్రం	-6.8178
▁కోసం	-6.82875
▁మంత్రి	-6.83537
▁హ	-6.84708
▁చేసింది	-6.85514
▁మరో	-6.8642
▁రెండు	-6.8771
▁పై	-6.88489
▁ఆమె	-6.89802
మ్	-6.90022
ట్లు	-6.91583
▁జరిగిన	-6.92011
▁జ	-6.94056
▁ప్రస్తుత	-6.94612
ద్	-6.94747
▁’	-6.95079
▁హైదరాబాద	-6.95307
▁కోట్ల	-6.95787
నీ	-6.95904
▁తమ	-6.96048
▁ప్రభుత్వం	-6.98438
ాలని	-6.99206
▁చాలా	-6.99352
▁అన్నారు	-6.99794
ద	-7.01546
▁ర	-7.03249
డం	-7.03415
ప్	-7.04254
▁ప్రధాన	-7.046
▁బీజేపీ	-7.0504
▁ఉంది	-7.05909
ల్లో	-7.0631
▁పార్టీ	-7.06486
▁మంది	-7.06609
▁నా	-7.06615
▁మ్యాచ	-7.06635
త్	-7.07241
▁చిత్ర	-7.10203
▁తర్వాత	-7.10291
▁శాతం	-7.10664
▁ఏ	-7.11655
▁మోదీ	-7.12245
▁కొత్త	-7.12658
▁తెలిసింద	-7.13489
▁మధ్య	-7.1349
వ్	-7.13569
నా	-7.14074
▁తొలి	-7.14208
▁కాంగ్రెస్	-7.20032
▁దేశ	-7.20967
▁లేద	-7.21218
ాల	-7.21509
స	-7.2176
▁మన	-7.21995
ైన	-7.22126
్లో	-7.22446
▁కి	-7.226
మైన	-7.22825
▁చ	-7.2289
లా	-7.23853
▁కాన	-7.24051
ంటే	-7.24466
షన్	-7.25057
▁కోర	-7.25058
హ	-7.25149
కే	-7.25182
బ	-7.25256
▁ప్ర	-7.25376
ఫ్	-7.2559
కా	-7.25671
▁ఇది	-7.27148
▁ప్రభుత్వ	-7.28212
▁వి	-7.28948
మని	-7.28983
▁దీని	-7.29449
పాటు	-7.29612
వి	-7.30177
నూ	-7.30225
రా	-7.31101
▁చెందిన	-7.31783
ాలు	-7.32064
▁హీరో	-7.32732
▁ఆర్థిక	-7.33265
రీ	-7.33451
టి	-7.34318
▁ఇ	-7.34768
దర్శకుడు	-7.35026
జ్	-7.35057
▁భారత్	-7.35241
▁ద	-7.35893
▁ప్రజల	-7.36403
దా	-7.36686
మా	-7.36846
▁ఎస్	-7.37367
▁వారి	-7.376
▁అవకాశ	-7.37602
▁రెండో	-7.37662
▁నెల	-7.37877
▁వరక	-7.39086
▁ఇప్పుడ	-7.39202
▁శాఖ	-7.39508
సి	-7.39705
▁ప్రకటించ	-7.39745
మే	-7.4041
▁అనే	-7.42805
ట్టు	-7.43091
లకు	-7.43677
బ్	-7.44406
▁పాత్ర	-7.45006
▁ముఖ్యమంత్రి	-7.4503
▁ఆర్	-7.47222
▁రాహు	-7.4725
గ్	-7.47289
▁ఏర్పాటు	-7.47427
▁ఎన్	-7.47826
▁తెలిపింది	-7.48367
▁సందర్భంగా	-7.48413
▁సంస్థ	-7.49401
▁ఏడాది	-7.49605
▁మా	-7.49671
▁ఎం	-7.50526
▁లక్షల	-7.5088
▁దీంతో	-7.51809
▁ని	-7.52
▁రూపాయల	-7.52006
ష్	-7.52207
▁కా	-7.52313
ె	-7.52893
▁వచ్చే	-7.53787
▁గురించి	-7.54177
పు	-7.54289
▁గత	-7.54383
▁పాటు	-7.54456
ారని	-7.54663
▁చేస్తున్న	-7.54806
తి	-7.5492
▁పెద్ద	-7.55463
▁మంచి	-7.56493
▁వల్ల	-7.56523
▁విజయ	-7.56546
▁ద్వారా	-7.56723
▁పాకిస్థాన	-7.57405
▁గ	-7.57623
రి	-7.57794
▁పేర్కొన్నారు	-7.58006
▁కుమార్	-7.58325
▁విజయం	-7.5897
▁నేపథ్యంలో	-7.59085
▁ప్రపంచ	-7.60301
▁సి	-7.60552
▁నిర్మాత	-7.61353
▁చెప్ప	-7.6142
▁ఆంధ్రజ్యోతి	-7.61631
సారి	-7.61764
▁అమెరికా	-7.6197
▁చేసే	-7.62243
ుడ్	-7.63221
▁స్టార్	-7.63264
▁సభ	-7.63294
శ్	-7.64048
▁ట	-7.64342
▁వర	-7.64519
▁కే	-7.65254
▁కంపెనీ	-7.65344
కీ	-7.65367
▁మాత్రం	-7.65806
ాలను	-7.66067
▁ఇక	-7.66557
ై	-7.66636
▁టీ	-7.66721
▁సింగ	-7.67329
డి	-7.67573
ంద	-7.67573
▁జట్టు	-7.67908
▁రాష్ట్ర	-7.68027
▁వంటి	-7.68282
▁మూడు	-7.68331
▁పూర్తి	-7.68419
▁ట్ర	-7.68454
▁సమాచారం	-7.68482
▁ఎన్నికల	-7.68843
▁చేశా	-7.69587
▁తాజా	-7.69735
▁వ్యక్తం	-7.69785
▁ముంబై	-7.69967
▁తెలుగు	-7.70215
▁తీవ్ర	-7.70714
▁కాగా	-7.70803
▁ఢిల్లీ	-7.71093
▁షూటింగ్	-7.71118
▁మాజీ	-7.71129
▁ప్రతి	-7.71679
ోంది	-7.72376
▁సంగతి	-7.72536
▁వద్ద	-7.72918
▁చేసి	-7.73094
▁శ్రీ	-7.73247
▁ప్రత్యేక	-7.738
▁రా	-7.73912
లీ	-7.74027
▁ఇటీవల	-7.74083
య్య	-7.74147
▁పేరు	-7.74188
ణ	-7.74373
ైనా	-7.74435
▁అధ్యక్షుడ	-7.74683
▁నేత	-7.74712
▁నేను	-7.74781
ధ	-7.76216
▁సీ	-7.77586
▁కథ	-7.7782
యి	-7.7788
▁గాంధీ	-7.78517
ున్న	-7.7858
▁రద్దు	-7.78583
▁ఇండియా	-7.78591
జ	-7.7885
▁కోర్టు	-7.78924
లోని	-7.79076
లి	-7.79561
కుండా	-7.79747
▁శుక్రవారం	-7.80002
▁సుప్రీంకోర్టు	-7.8002
▁కీలక	-7.80235
సీ	-7.80349
▁విషయం	-7.80668
▁మే	-7.81157
▁మీడియా	-7.81555
▁మహిళల	-7.82166
▁ఇన్న	-7.82318
▁పేర్కొ	-7.82387
▁బుధవారం	-7.82864
▁జాతీయ	-7.83028
▁గురువారం	-7.83141
ంగ	-7.83169
▁అదే	-7.8321
▁లేదు	-7.83492
ాల్లో	-7.83862
▁ఉంద	-7.84256
▁రోజు	-7.84317
▁మాత్రమే	-7.84501
▁కెప్టెన్	-7.84707
▁చైనా	-7.84838
లేదు	-7.84887
▁ప్రకారం	-7.84908
▁ఆట	-7.85444
ెడ్	-7.85502
లతో	-7.8571
▁ముందు	-7.86045
▁నిర్వహించ	-7.86275
▁అన్ని	-7.86313
▁సు	-7.86362
▁ఆదివారం	-7.86405
▁ఎన్నికల్లో	-7.86528
▁చెన్నై	-7.86593
▁అయిన	-7.86608
▁సమావేశం	-7.86775
▁వచ్చిన	-7.86791
▁బి	-7.86877
▁దేశంలో	-7.87001
▁మాట్లాడ	-7.87367
▁కాదు	-7.87999
▁మూడో	-7.88063
▁కలిసి	-7.88538
తే	-7.88543
▁ధర	-7.88692
▁తనకు	-7.88842
ంతో	-7.89134
న్నా	-7.89784
▁భారీ	-7.89813
▁తెలుస్తోంద	-7.89864
▁నిలిచ	-7.8991
వా	-7.90164
▁నాకు	-7.90176
▁జరిగింద	-7.90323
ాన	-7.91237
▁వర్గాల	-7.92098
▁లోని	-7.92311
▁ఐ	-7.92364
ంప్	-7.92901
▁స్పష్టం	-7.93235
▁ఎక్కువ	-7.93243
▁ఇచ్చిన	-7.94348
తా	-7.94349
▁ఉంటుంది	-7.94689
▁స్థాయి	-7.94931
▁చేయాలని	-7.95502
▁టా	-7.9564
▁చేయడం	-7.9646
ంపై	-7.96518
▁తీర్పు	-7.96814
▁సీనియర్	-7.96838
▁జరిగే	-7.96842
▁కొన్ని	-7.9685
కర్	-7.97688
▁డి	-7.98163
▁చేస్తున్నారు	-7.9847
▁బాలీవ	-7.9874
▁అండ	-7.9889
▁బీ	-7.98958
▁ఆడ	-7.98991
డంతో	-7.99153
▁మొత్తం	-7.99301
▁లు	-7.99418
ంత	-7.996
▁దర్శకత్వం	-7.99628
▁మీద	-7.99651
రో	-7.99932
▁ఆరోపించ	-8.00579
▁చేర	-8.01014
▁నిర్ణయం	-8.01209
▁దర్శకత్వంలో	-8.01581
ంటూ	-8.01618
▁రాజకీయ	-8.01644
కో	-8.01867
ొ	-8.02186
▁సోమవారం	-8.02284
▁టైటిల	-8.02502
ామని	-8.02506
▁జారీ	-8.02538
▁నిర్మిస్తున్న	-8.02708
▁త్వరలో	-8.02758
పూర్	-8.03053
▁రోజుల	-8.03103
ఆర్	-8.03256
ందుకు	-8.03309
ించిన	-8.03321
వు	-8.03704
▁పరుగుల	-8.04293
▁పోటీ	-8.0443
▁అంతర్జాతీయ	-8.0446
▁వరుస	-8.04463
▁మంగళవారం	-8.04473
▁కోహ్లీ	-8.04485
ండి	-8.04492
▁పరుగులు	-8.04628
శ	-8.04835
▁పి	-8.05204
▁చిత్రాల	-8.05284
▁ప్రేక్షకుల	-8.05696
▁సాధించ	-8.05721
▁జిల్లా	-8.05773
▁డైరెక్టర్	-8.05893
▁ఇతర	-8.06082
▁అమలు	-8.06215
▁టి	-8.06287
దు	-8.06408
▁నరేంద్ర	-8.06461
▁మరింత	-8.06479
▁ది	-8.06571
▁మార్చి	-8.06645
▁నోట్ల	-8.06669
▁అనంతర	-8.06781
▁ప్రదేశ	-8.06982
▁ఆఫ్	-8.07173
▁ఇప్పటిక	-8.07179
▁కేసు	-8.07493
ిక	-8.07512
▁పోలీసుల	-8.07558
నర్	-8.07672
▁చివరి	-8.09131
▁సినిమాలో	-8.09354
వర్	-8.09354
▁మేర	-8.09375
లోకి	-8.09667
ప్పుడు	-8.0977
ులు	-8.09942
▁గుజరాత	-8.10584
▁జస్టి	-8.10586
▁మద్దతు	-8.10587
మీ	-8.10868
▁సీఎం	-8.11029
▁వాటి	-8.11259
ెన్	-8.11704
▁అందించ	-8.11926
▁శివ	-8.11951
▁పని	-8.12393
▁కుటుంబ	-8.12938
▁ఇందులో	-8.12955
▁అది	-8.13288
▁మార్కెట్	-8.13574
▁రెడ్డి	-8.13615
▁ఎంత	-8.1362
▁యువ	-8.1394
▁ప్రధాని	-8.1399
▁లా	-8.14069
మి	-8.14377
▁చర్యల	-8.1443
ళ	-8.14447
భ	-8.14511
▁శ	-8.14859
▁ముఖ్య	-8.14885
▁శనివారం	-8.14886
▁డిమాండ్	-8.14886
▁వన్డే	-8.14886
▁రాజ్	-8.15034
లాంటి	-8.15063
▁రాజ	-8.15162
▁పాట	-8.15373
▁పా	-8.15585
యా	-8.15821
థ	-8.1605
వీ	-8.16176
▁వై	-8.16327
డన్	-8.1637
▁తాన	-8.16408
▁బ్యా	-8.16712
▁ట్వీట్	-8.17108
▁ఫిబ్రవరి	-8.17108
▁విచారణ	-8.17112
▁గుర్తు	-8.17115
▁సమయంలో	-8.17401
▁దేశాల	-8.17494
రణ్	-8.17672
▁వేల	-8.17997
దని	-8.18326
డీ	-8.18338
ఐ	-8.18475
▁ఎలా	-8.18745
చ్	-8.19014
▁కాద	-8.1933
▁ఏప్రిల్	-8.19381
▁సిరీస్	-8.19382
▁కమిటీ	-8.19404
▁వెంట	-8.19618
క్ష	-8.19621
▁ఉంటుంద	-8.19825
▁కృష్ణ	-8.1994
ినట్లు	-8.19993
▁అన్న	-8.2035
▁రి	-8.20936
▁ఉన్నాయి	-8.21086
▁పెట్ట	-8.21385
న్స్	-8.21983
▁చేయ	-8.22138
▁ప్రారంభించ	-8.2216
▁ఎక్స్	-8.22266
▁దాని	-8.223
విధ	-8.23385
▁క్ల	-8.23793
▁పన్ను	-8.23852
▁పరిస్థితి	-8.24087
▁నటిస్తున్న	-8.24419
▁అంటే	-8.24483
▁ఉప	-8.24658
▁అందుక	-8.24677
లేద	-8.24708
▁గంటల	-8.2478
▁బాగా	-8.24784
▁ఎవర	-8.2488
▁బెంగళూరు	-8.25017
▁ఉ	-8.25154
▁బ్యాట	-8.25253
▁చేయడానిక	-8.25787
▁సై	-8.25863
▁టెస్ట	-8.26103
▁చీ	-8.26444
▁హైకోర్టు	-8.26526
▁శ్రీనివాస	-8.26532
▁చాంపియన్	-8.26592
▁జంట	-8.26599
▁ఇదే	-8.26634
▁సా	-8.26753
ుడు	-8.27244
▁డీ	-8.27306
▁ము	-8.27698
▁వికెట్ల	-8.27738
▁పీ	-8.27771
▁కేసులో	-8.27788
ుల	-8.27839
టీ	-8.27869
▁వారికి	-8.28115
▁దేవ	-8.28198
▁హీరోయిన్	-8.2821
▁తామ	-8.28236
▁ర్	-8.28589
▁పతాక	-8.29028
▁విలువ	-8.29035
▁వృద్ధి	-8.29043
▁దా	-8.29059
పి	-8.29259
▁రికార్డు	-8.29353
టా	-8.29389
వే	-8.29464
కూ	-8.29667
▁చేస	-8.29925
అ	-8.30194
▁య	-8.30356
▁ఫోన్	-8.30466
▁వీరి	-8.30737
▁అధికారులు	-8.30817
▁వచ్చింద	-8.30843
జీ	-8.30879
▁తీసుకున్న	-8.31092
బి	-8.31374
ుతున్న	-8.31579
▁పోస్ట్	-8.316
▁యాద	-8.31625
▁కార్యక్రమంలో	-8.31795
▁జి	-8.32015
▁సంఘం	-8.32041
▁వ్యతిరేక	-8.3205
▁ఉందన	-8.32263
▁నటించిన	-8.32288
▁దిగ	-8.32347
▁తెలంగాణ	-8.32699
▁మార	-8.3284
టర్	-8.32842
▁కె	-8.32933
▁బ్యాంకు	-8.33139
▁చేస్తోంద	-8.33253
▁విషయంలో	-8.33281
రాజ్	-8.33291
▁ప్రముఖ	-8.33444
▁భారతదేశం	-8.336
▁తెరకెక్క	-8.33623
▁నటించ	-8.33637
▁ఉత్తర	-8.33646
▁సాగ	-8.33917
▁వివరాల	-8.34225
▁ఎయిర	-8.34262
▁వ్యక్తి	-8.34453
▁గ్రూప	-8.34475
స్తోంది	-8.34544
▁హెచ్	-8.34847
▁పాల్గొన్న	-8.34888
▁ప్రసా	-8.3534
▁సినిమాల	-8.35477
▁సమ	-8.35583
సా	-8.3571
దీ	-8.3574
తు	-8.36174
▁రీ	-8.36451
▁రూపాయలు	-8.36459
▁కో	-8.36533
▁ఎల్	-8.36597
ల్డ్	-8.36685
ంటి	-8.36714
ింద	-8.36804
ంతా	-8.36868
▁స్పందించ	-8.36926
▁క్రికెట్	-8.36938
▁అభివృద్ధి	-8.36955
▁ఫోర్	-8.36981
▁వేదిక	-8.37013
▁ఏక	-8.37063
▁చిన్న	-8.37066
▁అంత	-8.37151
ష	-8.37204
▁భాగంగా	-8.3724
దే	-8.37281
▁ఇన్	-8.37314
ఎస్	-8.37643
కర	-8.3784
▁నే	-8.38051
▁చెప్పాడ	-8.38174
▁రామ్	-8.38243
▁వార	-8.38425
వర	-8.38711
▁కింద	-8.38997
▁మె	-8.39242
▁నిర్మించ	-8.39278
జి	-8.39568
▁విధ	-8.39569
▁ఇంగ్లం	-8.39723
▁పురుషుల	-8.39842
▁చేస్త	-8.39925
▁తీసుకు	-8.39926
▁స్వ	-8.39939
▁ఆదేశాల	-8.40009
▁గో	-8.40082
▁చేతి	-8.40152
▁మొదటి	-8.40175
▁మెంట్	-8.40228
ీర్	-8.40268
▁సంగీతం	-8.40429
రెడ్డి	-8.40603
జా	-8.40614
రావు	-8.40639
▁అక్కడ	-8.40698
▁మళ్ల	-8.4073
ాల్సి	-8.41652
ాయని	-8.42141
▁ఎంపిక	-8.42396
గల	-8.42475
▁ఐదు	-8.42488
a	-8.42552
▁వహించ	-8.42603
▁అవసరం	-8.42619
ాబాద	-8.42646
ప్పటిక	-8.43091
▁వా	-8.43094
▁జో	-8.43414
తం	-8.43505
నుంది	-8.43864
▁జీవిత	-8.43937
▁అతని	-8.4395
▁సాధించిన	-8.4397
క్స్	-8.44435
▁క్ర	-8.44612
టు	-8.44771
▁ఉన్నార	-8.45168
▁మాట	-8.45187
▁పలు	-8.45261
లాండ్	-8.45282
▁తప్ప	-8.45328
▁నమోదు	-8.45501
▁వీడియో	-8.45503
▁రాష్ట్రపతి	-8.45516
▁పన్నీర	-8.45527
▁షిప్	-8.45551
▁నాట	-8.45615
▁నటుడ	-8.45687
▁సంబంధించిన	-8.45761
▁జరుగుతోంద	-8.45763
యం	-8.45783
▁చేసుకున్న	-8.45794
▁బిహార	-8.45822
▁అభిమానుల	-8.45912
వ్యాప్తం	-8.45956
▁వీర	-8.45991
ున్నాయి	-8.46011
▁లుక్	-8.46198
▁భారతదేశ	-8.46385
▁అంతకు	-8.46495
▁లక్ష్య	-8.46817
▁ముందుకు	-8.47231
▁పట్ట	-8.47368
ఏ	-8.4757
▁మీ	-8.47798
ముందు	-8.47812
▁భద్రత	-8.47981
▁లం	-8.48226
▁శిక్ష	-8.48444
▁తమిళ	-8.48495
▁శశికళ	-8.48531
▁జైట్లీ	-8.48531
▁ఫిల్మ్	-8.48531
ితే	-8.48541
▁పదవి	-8.48551
▁న్యాయ	-8.48563
ట్ట	-8.48564
య్	-8.48575
▁అంద	-8.48576
▁అలాంటి	-8.48756
▁అంటూ	-8.48765
▁మి	-8.48835
▁కంపెనీల	-8.48877
▁వీ	-8.48885
ంలో	-8.48907
ుతోంది	-8.49148
▁అనేక	-8.49156
▁డ్రా	-8.49206
▁ఫైనల్లో	-8.49362
▁తెలుగులో	-8.49493
▁అధికారుల	-8.49859
▁పొంద	-8.49894
ేషన్	-8.50401
▁తగ్గ	-8.50515
▁జూన	-8.507
▁ఇప్పటి	-8.50801
▁ల్లో	-8.51174
కొ	-8.51233
▁పెంచ	-8.51426
ఢ	-8.5164
▁దృష్టి	-8.51649
▁శాసనసభ	-8.51656
▁గొప్ప	-8.5166
▁టీమిండియా	-8.51661
▁కేవల	-8.51663
▁సాయం	-8.51691
▁హై	-8.51734
▁గతంలో	-8.5174
▁జీ	-8.51762
▁ఆదేశించ	-8.5189
▁సినీ	-8.51929
▁కారణంగా	-8.51977
▁షో	-8.52084
▁పర	-8.52402
▁ప్రచారం	-8.52466
▁కోట్లు	-8.5251
ాలి	-8.5252
▁బాబు	-8.52544
▁రిల	-8.52574
హాలు	-8.52937
లే	-8.53266
▁అలాగ	-8.53295
పో	-8.53525
▁చూపించ	-8.53662
ఫ	-8.5387
రే	-8.54144
▁షా	-8.54179
▁రవి	-8.54378
టం	-8.54409
టువంటి	-8.54732
▁ఆందోళన	-8.54882
▁విదేశీ	-8.54882
▁యూపీ	-8.54882
▁డ	-8.54914
▁భారతీయ	-8.5495
▁ఎన్టీఆర్	-8.55014
▁బంగార	-8.5505
▁ఐపీఎ	-8.55117
▁ప్రజా	-8.55142
▁పాత్రలో	-8.55229
▁బా	-8.55397
త్ర	-8.55458
▁తదితరుల	-8.55503
▁సం	-8.5567
▁విశేషం	-8.55762
లపై	-8.55786
▁భ	-8.55803
సు	-8.55823
▁ష	-8.55929
▁లీగ	-8.56175
▁పడ	-8.56204
▁ఆధార	-8.56362
▁ఎప్పుడ	-8.56423
▁గు	-8.56528
స్తున్న	-8.5673
▁కెర	-8.57023
స్థాన	-8.57034
పా	-8.5709
▁హా	-8.57307
▁విషయ	-8.5733
▁పు	-8.57519
▁పాయింట్ల	-8.57618
▁థ	-8.57884
యే	-8.58048
▁మత	-8.58059
▁దర్యాప్తు	-8.58215
▁జనవరి	-8.58215
▁ఫలితాల	-8.58215
▁క్రితం	-8.58216
▁ఘన	-8.58228
▁సృష్టించ	-8.58277
▁ఉదయ	-8.5828
▁హిట్	-8.58524
బీఐ	-8.58562
▁రాష్ట్రంలో	-8.58713
▁వెల్లడించ	-8.58924
▁ఉండాల	-8.59058
▁ఇచ్చ	-8.59118
▁వికెట్లు	-8.59228
▁అతి	-8.59352
▁చిత్రంలో	-8.59376
▁రంగంలో	-8.59449
▁పేరుతో	-8.59624
▁పె	-8.59629
▁సంస్థలు	-8.59745
ప్ప	-8.59922
ార	-8.59991
▁డా	-8.60048
▁బిజ	-8.60059
ేజ్	-8.60065
సార్	-8.60098
▁అన	-8.60279
ంట	-8.60481
▁టోర్నీ	-8.6066
▁పాక	-8.60915
▁కల	-8.60993
నం	-8.61003
▁స్టా	-8.61064
▁వె	-8.61281
ుతూ	-8.61344
ండ్	-8.61379
▁కొ	-8.61584
▁తేడా	-8.61665
▁మహా	-8.61672
▁సింగిల్	-8.61722
▁సూపర	-8.61774
ఎం	-8.61799
▁రైతుల	-8.6189
▁ఆమోద	-8.62122
▁స్థానంలో	-8.6215
నెస్	-8.62169
▁ఆసీ	-8.62402
▁ఉండే	-8.63204
▁తా	-8.63226
్నారు	-8.63228
లలో	-8.63915
మ్మ	-8.64024
నాథ	-8.64155
▁పవన	-8.6416
▁జరుగుతున్న	-8.64194
ెంట్	-8.64515
▁ప్రకటన	-8.64563
▁వస్తున్న	-8.64625
▁జా	-8.64851
టివ్	-8.65119
▁రాజీనామా	-8.65235
▁సదస్సు	-8.65236
▁దాడుల	-8.65429
మంది	-8.65464
▁ఏళ్ల	-8.65478
▁జైలు	-8.65548
▁నేతృత్వంలో	-8.65549
ఖండ	-8.65584
▁వహిస్తున్న	-8.65606
ండ	-8.65628
▁రాత్రి	-8.65669
▁–	-8.65784
▁కల్యాణ్	-8.65811
▁కొట్ట	-8.65834
ంగ్	-8.65891
▁మహేశ్	-8.65911
▁జార్	-8.66025
▁తప్పు	-8.66069
▁వెల్లడించారు	-8.66169
▁యాక్	-8.66196
యూ	-8.66274
▁రాజు	-8.66311
▁ఫ	-8.66356
ేలా	-8.66373
▁ప్రశ్నించ	-8.66381
▁సాధించింద	-8.6643
▁జయ	-8.66467
▁టీజ	-8.66779
▁అరుణ	-8.67088
ఎఫ్	-8.67414
యార్	-8.67708
వైపు	-8.67761
పాన్	-8.67841
ాను	-8.67908
న్నీ	-8.67934
వలసి	-8.67963
▁బె	-8.68532
▁అధికార	-8.68551
▁వివరించ	-8.68574
▁గోల్	-8.68758
▁నాలుగ	-8.68758
▁ఇలా	-8.68857
ాయ్	-8.68935
▁కార్యదర్శి	-8.68939
▁రాజ్యసభ	-8.68939
▁స్కోరు	-8.68939
▁చైర్మన్	-8.6894
▁ఎగ్జి	-8.68948
▁మరి	-8.68953
▁జోడీ	-8.68976
▁కొందర	-8.68986
▁ఉంటే	-8.69052
▁కాకుండా	-8.69075
ము	-8.69111
▁వీటి	-8.69146
ున్నారు	-8.6917
పల్లి	-8.69344
▁త్రైమాసికం	-8.69372
▁చేయనున్న	-8.6975
▁బోర్డు	-8.69967
▁టోర్నీలో	-8.70029
▁గౌరవ	-8.70041
▁కాలంలో	-8.7008
▁కప్	-8.70091
▁చిత్రాన్న	-8.7013
▁సమస్య	-8.70162
▁ప్రేమ	-8.70557
▁సభ్యుల	-8.70821
ఇ	-8.71068
సర్	-8.71416
▁ఆనందం	-8.71633
▁కార్యక్రమాల	-8.71779
కాంత్	-8.718
▁పంప	-8.71914
▁ఇంక	-8.71974
▁నగర	-8.72297
ుంది	-8.72409
▁లక్షలు	-8.72492
ీన్	-8.72664
▁అవినీతి	-8.72785
▁అసెంబ్లీ	-8.72785
▁ఫిర్యాదు	-8.72785
▁పరిష్కార	-8.72787
▁చిత్రమిది	-8.72795
రాజు	-8.72872
▁ఇలాంటి	-8.72927
▁నిర్వహిస్తున్న	-8.72947
▁సెట్	-8.73064
▁వ్యవస్థ	-8.73081
▁ట్విట	-8.73228
▁కై	-8.73287
ాయ	-8.7355
▁ఇద్దరు	-8.74057
స్త	-8.74156
▁జట్ల	-8.74168
▁చె	-8.74461
ిత్	-8.74642
▁కేంద్రం	-8.74709
▁మన్	-8.74831
▁ఆధారం	-8.74968
వారు	-8.74983
▁అలా	-8.75009
▁రావడం	-8.75029
▁ముంద	-8.75089
▁ఖ	-8.75132
▁నెలల	-8.75153
వాద	-8.75165
రం	-8.75211
▁స్థాయిలో	-8.75252
హా	-8.76096
్య	-8.76188
▁వెళ్ల	-8.76503
▁టీమ	-8.76636
▁సమయ	-8.76742
▁చిరంజీవి	-8.76785
▁దగ్గర	-8.76785
▁ఆరోగ్య	-8.76785
▁అక్కినేని	-8.76786
▁కమిషన	-8.76792
▁కొరియా	-8.76797
▁దాదాపు	-8.768
▁కోల్	-8.76912
▁శర్మ	-8.76928
ూరి	-8.77096
▁వర్మ	-8.77151
▁ఓట	-8.77243
▁తెలియ	-8.77262
త్రం	-8.77539
▁మార్చ	-8.77566
వీస్	-8.77991
పుల్	-8.78033
పట్ల	-8.78164
▁ఒక్క	-8.78442
▁ఇచ్చారు	-8.78526
▁లవ	-8.78709
▁ఎఫ్	-8.7872
▁నిర్మాతలు	-8.78975
▁దూరం	-8.79133
▁నేతల	-8.79189
▁సెంచరీ	-8.79201
ద్ద	-8.79269
▁నష్ట	-8.79451
▁సమస్యల	-8.79595
యర్	-8.79907
▁పాల	-8.79948
▁దాఖల	-8.80072
రూ	-8.80123
▁పిల్లల	-8.80315
▁డే	-8.80425
▁ఖాతా	-8.80456
ఠ	-8.8081
▁సేవ	-8.80926
▁పర్యటన	-8.80951
▁సామాజిక	-8.80951
▁విజేత	-8.80952
▁అంతేకా	-8.80981
▁ప్రాంత	-8.80992
▁శిక్షణ	-8.81013
▁జూలై	-8.81029
▁అత్యంత	-8.8103
▁అహ్మద	-8.8103
▁అవకాశాలు	-8.81042
▁కంపెనీలు	-8.81246
▁జరుగుతుంది	-8.81248
▁అర్జున	-8.81357
ార్	-8.81558
▁వచ్చి	-8.81578
▁దాడి	-8.81732
▁నెగ్గ	-8.81739
▁విభాగంలో	-8.81846
▁వికెట్	-8.8187
డే	-8.8193
యన్	-8.8223
▁నాథ	-8.82545
బీ	-8.82565
ిల్	-8.82613
ళ్ల	-8.82645
▁విరా	-8.82881
నీల్	-8.82942
▁డిసెంబర	-8.8308
▁అంశాల	-8.83251
▁సన్నివేశాల	-8.83283
టన్	-8.83479
▁రంగ	-8.8351
▁సభ్యులు	-8.83533
ికల్	-8.83622
▁లేఖ	-8.83719
▁కాలం	-8.8381
▁ఉన్నాయ	-8.83973
▁నిజ	-8.8402
ఈ	-8.84072
▁విమాన	-8.84133
ాల్సిన	-8.84137
వో	-8.84239
▁ఎత్తు	-8.84496
▁ఎన్న	-8.84611
ైంది	-8.84659
పర	-8.84689
▁టెస్టు	-8.84868
ేశారు	-8.84904
▁తర	-8.84968
▁ఒ	-8.85039
▁అఖిల	-8.85072
▁నమ్మ	-8.85258
▁ఆంధ్ర	-8.85299
▁షెడ్యూల	-8.85299
▁రజనీ	-8.853
▁సెల్వం	-8.853
▁ఘటన	-8.85301
▁అర్ధ	-8.85306
▁ప్లేయర్	-8.85309
▁మొబైల్	-8.85329
▁మాస్టర్	-8.85341
▁అందులో	-8.85344
▁ఓపెన	-8.85476
ఖాన్	-8.85515
ించారు	-8.8552
▁రక్షణ	-8.85542
▁తొలిసారి	-8.85578
▁ప్రభావం	-8.85591
ాలీవ	-8.85594
▁సహా	-8.85653
మాన్	-8.85686
▁లైన్	-8.85695
▁అమ్మ	-8.85715
▁కల్పించ	-8.85734
▁కతా	-8.85767
▁మహిళా	-8.8579
▁చి	-8.85791
▁గేమ్	-8.85799
▁తేజ	-8.8595
▁తిరిగి	-8.85975
▁చూప	-8.86035
వారికి	-8.86061
హర్	-8.86283
▁నంద	-8.86434
▁నాగ	-8.86477
ీయ	-8.86525
▁చర్చలు	-8.86541
డా	-8.86628
▁ఎంట	-8.86662
సన్	-8.86918
▁సాయి	-8.8702
కుమార్	-8.87673
్ర	-8.87791
▁ప్రీత	-8.87808
వల్ల	-8.8817
▁రోజ	-8.88191
▁ఫైనల్	-8.88606
ప్రదేశ	-8.88632
ప్రసా	-8.88653
్యూజి	-8.8867
ుంద	-8.88954
▁అందర	-8.89149
టల్	-8.89205
▁ఆలోచన	-8.89348
ౌట్	-8.89528
▁ఉగ్రవాద	-8.89559
గో	-8.89683
▁ఆశ	-8.89787
▁అందుబాటులో	-8.89845
▁కృషి	-8.89845
▁కెమెరా	-8.89845
▁ధర్మాసనం	-8.89845
▁రవితేజ	-8.89845
▁అశ్విన	-8.89845
▁జాబితా	-8.89845
▁సుప్రీం	-8.89845
▁హిందీ	-8.89846
▁గ్రాం	-8.89846
▁నాయిక	-8.89851
▁దక్షిణాఫ్రికా	-8.89876
▁రై	-8.89897
▁ఉపాధ్యక్షు	-8.899
వాల్	-8.89917
▁ముగ్గుర	-8.89931
▁స్వయం	-8.89936
▁ప్రాంతాల్లో	-8.89966
▁నికర	-8.89975
▁నెలలో	-8.90007
ిమిట	-8.90036
▁వ్యాపార	-8.901
▁బృందం	-8.90133
▁చోటు	-8.90226
▁భూ	-8.90232
▁ఓవర్లలో	-8.90293
▁కూ	-8.90322
▁చట్ట	-8.90372
ుకుంట	-8.90382
▁కర్ణాటక	-8.90782
▁చట్టం	-8.91118
నల్	-8.91282
▁ఉన్నట్లు	-8.91284
సే	-8.91318
ఆ	-8.91443
▁వర్క	-8.9146
▁బ్యాంక	-8.91519
▁అవార్డు	-8.91602
▁వాయి	-8.91909
▁పో	-8.92022
ేష్	-8.92236
▁రాయ	-8.92405
▁క్రికెటర్	-8.92505
▁ఇక్కడ	-8.92588
▁ఫా	-8.9291
▁ఆరు	-8.92944
పుడు	-8.93012
▁రె	-8.9305
▁సంగీత	-8.9339
▁వివాహ	-8.93403
▁చేసుకుంట	-8.93406
ధ్య	-8.93516
▁నివేదిక	-8.936
▁స్ట	-8.93644
నున్న	-8.94205
▁మీర	-8.94206
ుకోవాల	-8.94324
▁లేక	-8.94466
▁సంవత్సరం	-8.94553
▁ప్రదర్శన	-8.94607
▁బడ్జెట్	-8.94607
▁కాంబినేష	-8.94607
▁గెలుపు	-8.94607
▁విద్యార్థుల	-8.94607
▁నూతన	-8.94612
▁స్పందిస్త	-8.94614
▁న్యాయమూర్తి	-8.94615
▁జీఎస్	-8.94617
▁చేస్తాం	-8.94618
▁ఉండటం	-8.94624
▁అద్భుత	-8.9464
▁సాధారణ	-8.9464
▁కాల్పుల	-8.94699
కృష్ణ	-8.94738
▁కూడి	-8.94758
▁ఇండియన్	-8.94759
▁లేకుండా	-8.94836
▁నాలుగో	-8.94844
నో	-8.94897
▁ప్రొడక్షన్	-8.94945
కె	-8.95096
▁యూనిట్	-8.95143
▁కథానాయకుడి	-8.95262
▁మూవీ	-8.95309
▁వ్యాఖ్యలు	-8.95652
▁న్యూ	-8.95745
▁భాష	-8.95875
▁కన్నా	-8.95882
▁ముస్లిం	-8.95973
▁ఆల్	-8.96086
టింగ్	-8.96245
▁సిద్ధ	-8.96291
▁పోల్	-8.96406
దారుల	-8.96485
▁చేసుకుంద	-8.9683
▁మందికి	-8.97145
ినట్టు	-8.97146
▁మహిళ	-8.97181
▁నిబంధనల	-8.97237
ిస్తున్న	-8.97263
▁జె	-8.97415
ఎ	-8.97553
సె	-8.97618
▁చేయించ	-8.97637
లె	-8.97662
శా	-8.97699
▁ఫి	-8.97708
▁జే	-8.97743
▁ఫే	-8.97904
▁పెరిగి	-8.97914
మై	-8.98262
▁లి	-8.98389
హెచ్	-8.98416
రమ్	-8.98637
ెల్	-8.98789
▁ఆసక్తి	-8.98884
▁కష్ట	-8.98945
▁వస్త	-8.99042
బర్	-8.9908
ల్లా	-8.99086
ుకున్న	-8.99121
▁తీసుకోవాల	-8.99417
ెస్ట్	-8.99522
ాత్మక	-8.99582
▁అధినేత	-8.99607
▁గుర్తింపు	-8.99607
▁నియంత్రణ	-8.99607
▁సమాధానం	-8.99607
▁రైల్వే	-8.99607
▁కేరళ	-8.99607
▁నియమించ	-8.99608
▁స్పందన	-8.99611
▁డబుల్	-8.99615
ఎన్	-8.99659
▁కాస్త	-8.99685
▁గవర్నర్	-8.99701
▁ఫస్ట	-8.99709
▁చౌ	-8.99795
▁ఆస్ర్టేలియా	-8.99833
▁సురే	-9.00031
▁చెంద	-9.00045
▁యూ	-9.00098
▁ఎందుకు	-9.00156
▁ఒకటి	-9.00261
▁ట్రైల	-9.00267
▁హోం	-9.00374
▁నిధుల	-9.00408
▁మణి	-9.00466
▁భద్రతా	-9.00531
▁బో	-9.00589
▁ఏడు	-9.00642
▁చూసి	-9.00681
ుతుంది	-9.00724
▁లె	-9.00765
ంబ	-9.00796
▁పనుల	-9.0152
▁విమర్శల	-9.01532
డమే	-9.01696
▁ర్యాంక	-9.01896
▁వైపు	-9.01916
▁డ్	-9.0193
టో	-9.02025
▁పాటలు	-9.02325
▁సమాజ	-9.02356
▁సినిమాతో	-9.02414
▁సోషల	-9.03039
కాల	-9.03143
జయ్	-9.03339
▁పొ	-9.03503
▁తేదీ	-9.03582
▁జై	-9.0367
▁ఆరోపణలు	-9.03715
▁మాస్	-9.03815
▁కన్	-9.03915
▁అమిత	-9.04274
▁తెర	-9.04287
▁నాటిక	-9.0439
ంజయ్	-9.04542
▁పోషించ	-9.04618
ియో	-9.04744
▁టెలికా	-9.0487
▁దరఖాస్తు	-9.0487
▁ముగిసిన	-9.0487
▁మంచు	-9.0487
▁ఉత్పత్తుల	-9.04872
▁వైద్య	-9.04887
▁బ్రేక	-9.04888
▁సలహా	-9.04896
▁మళ్ళ	-9.04921
▁హత్య	-9.04921
▁నితీ	-9.04938
▁ఎన్టీ	-9.04965
▁మంత్రిత్వ	-9.04967
▁డీఎంకే	-9.0497
▁సచిన	-9.05047
▁దర్శకుడి	-9.05053
▁అర్థం	-9.05084
ండర్	-9.05105
▁తండ్రి	-9.0514
▁కాల	-9.05146
▁కార్యకలాపాల	-9.05264
▁ఆగస్టు	-9.05297
ందర్	-9.05377
బల్	-9.05387
▁అమ్మాయి	-9.05399
▁చేరుకున్న	-9.05412
ర్లు	-9.05446
▁బిజీ	-9.05587
▁సేవల	-9.05654
▁ఏద	-9.05691
ైట్	-9.05699
▁ఎదురు	-9.05868
▁విధించిన	-9.05887
▁లభించింద	-9.059
ూరు	-9.05928
▁అర	-9.05943
▁యువత	-9.05992
▁యం	-9.06077
▁వాళ్ల	-9.061
▁దిల్	-9.06112
▁వార్తల	-9.06125
ాడ	-9.06134
నున్నారు	-9.06226
▁వేస	-9.06326
▁అందరి	-9.06616
▁రౌండ్	-9.06735
▁హక్కుల	-9.06777
▁వాస్తవ	-9.06797
▁గెలిచ	-9.06824
ంటన్	-9.06862
▁చేస్తామన	-9.06897
సీఆర్	-9.0702
▁ప్రయాణ	-9.07037
▁ప్రభుత్వాల	-9.07144
▁పోలీస	-9.07355
▁ఇవ్వాలన	-9.07362
కూర్	-9.07531
ీత	-9.07534
ుతుంద	-9.0771
▁తె	-9.07797
▁తమిళనాడు	-9.07831
▁జరిప	-9.0787
▁చెప్పింద	-9.0788
▁అన్నాడ	-9.07941
▁ఏం	-9.07997
ుండగా	-9.08005
▁తి	-9.08034
▁దిగ్గజ	-9.08043
▁బాధ్యత	-9.08124
▁ప్రశ్న	-9.08141
▁డాలర్ల	-9.08197
▁ఆటగాళ్ల	-9.08198
▁ఆనంద	-9.08414
▁సంస్థల	-9.08461
▁డివి	-9.0875
▁మార్కెట్లో	-9.0875
▁ఓవర్	-9.08946
ందో	-9.09028
▁ప్రచార	-9.09032
▁అంగీకరించ	-9.09058
స్వామి	-9.09062
▁అందరిక	-9.09128
మంత్రి	-9.0915
ేసింది	-9.09177
ఓ	-9.09248
దీప్	-9.09358
బో	-9.09409
ంచి	-9.09421
ున్నా	-9.09465
▁డు	-9.09522
▁పరిశ్రమ	-9.09736
▁మానవ	-9.09816
▁యోగ	-9.0985
▁అడుగు	-9.09924
▁సంబంధించి	-9.09937
▁తీసుకో	-9.0995
▁డైరెక్ట	-9.09952
▁కోచ్	-9.09966
▁ఆసియా	-9.10129
▁ఉన్నా	-9.10168
▁దెబ్బ	-9.10235
ట్ల	-9.10312
▁నిమిషాల	-9.10316
▁టెక్నాలజీ	-9.10425
▁ట్రోఫీ	-9.10425
▁పెట్టుబడుల	-9.10425
▁రెగ్యుల	-9.10425
▁విజ్ఞప్తి	-9.10425
▁కూటమి	-9.10425
▁సిబ్బంది	-9.10425
▁నిరసన	-9.10426
▁ఉద్యమ	-9.10428
▁సోనియా	-9.10429
▁దీన్ని	-9.10431
▁తగిన	-9.10432
▁కేజ్రీవాల	-9.10464
▁చిదంబరం	-9.10464
▁స్పిన్	-9.10466
▁బుక్	-9.10476
▁బలం	-9.10572
▁హామీ	-9.10623
▁ఫుల్	-9.10641
▁సమంత	-9.10645
▁ఐట	-9.10649
▁సుమారు	-9.10676
▁తల్లి	-9.107
▁ముఖ	-9.10705
▁సూర్య	-9.10809
▁తీస	-9.10824
జిల్	-9.10838
▁ఆటగాడ	-9.10847
▁షి	-9.10891
పీఎస్	-9.10941
ెట్టి	-9.10982
▁చర్చ	-9.11018
▁ప్రమాదం	-9.11135
ిస్తున్నారు	-9.11151
▁జిఎ	-9.11249
▁సాగే	-9.11308
▁జీవితంలో	-9.11312
▁వేడుక	-9.11422
ధర్	-9.11426
▁ప్రయత్నాల	-9.11426
ుకోవడం	-9.11462
▁స్థానాల	-9.11498
▁చేపట్టిన	-9.1162
ింద్	-9.11907
▁ఇం	-9.11987
▁ఓపెనర్	-9.12172
▁డాన్స	-9.12186
▁కట్ట	-9.12239
▁తీరు	-9.12262
▁సత్య	-9.12318
▁యా	-9.12484
▁దేశం	-9.12507
▁ఫొటో	-9.12672
▁పది	-9.12759
షి	-9.12789
బ్బ	-9.12807
▁చెబుతున్న	-9.12811
డానిక	-9.12918
▁నమ్మకం	-9.13043
▁బాలల	-9.13136
▁అధికారి	-9.13228
రాలు	-9.13255
▁తల	-9.13483
▁అస	-9.13533
ావు	-9.13623
మేక్	-9.13825
▁అక్రమ	-9.14171
▁తెలుస	-9.14355
▁దు	-9.14396
ియన్	-9.14551
▁స్ప	-9.14616
ాలకృష్ణ	-9.14663
ృ	-9.14774
▁కారణమ	-9.14783
ళ్ళు	-9.14948
▁దశ	-9.14953
ిస్తే	-9.14965
నె	-9.14989
▁కనిపించ	-9.15017
లై	-9.15264
▁చరిత్ర	-9.15407
▁కేటాయించ	-9.15608
గ్గా	-9.15641
▁న్	-9.15701
ించింది	-9.15719
ఫా	-9.15735
▁ప్రీ	-9.15777
▁నాని	-9.15818
▁విన	-9.159
డర్	-9.16089
▁వ్య	-9.16132
▁చేయాల	-9.16159
▁సె	-9.1622
▁అభ్యర్థి	-9.16279
ెస్	-9.16296
▁ఒబామా	-9.16308
▁గరిష్ఠ	-9.16308
▁జగన్నాథ	-9.16308
▁నిపుణుల	-9.16308
▁బహిరంగ	-9.16308
▁బీసీసీఐ	-9.16308
▁మౌలిక	-9.16308
▁సంయుక్త	-9.16308
▁సమర్పణ	-9.16308
▁కీర్తి	-9.16308
దుపరి	-9.16309
▁ఆగ్రహం	-9.16309
▁నాగార్జున	-9.16309
▁తొలు	-9.1631
▁హిందువుల	-9.1631
▁జేడీయూ	-9.16312
▁ఆదిత్య	-9.16312
▁చక్క	-9.16313
▁పేమెంట్	-9.16314
▁గ్యా	-9.1632
▁నిర్ణయ	-9.16334
▁సీజన్	-9.16336
▁సెమీ	-9.1634
▁షేరు	-9.16364
▁నీటి	-9.16364
▁ప్రెస్	-9.16383
▁వాషింగ్ట	-9.16421
▁సౌర	-9.16432
▁కార్తి	-9.16452
ీస్	-9.16494
▁జనర	-9.16562
▁వెలువడ	-9.16566
▁ఢిల్లీలో	-9.1658
▁ప్రపంచంలో	-9.16583
▁చేతుల	-9.16596
▁పెళ్లి	-9.166
▁లాంటి	-9.16636
▁పాల్గొన	-9.16671
▁పూజా	-9.16802
తార	-9.16808
▁ఇదిలా	-9.1681
▁చంద్ర	-9.16813
▁అరెస్టు	-9.16912
రంగ	-9.16912
వారి	-9.16942
▁ఆదాయం	-9.17029
▁అయ్య	-9.17094
▁రకాల	-9.1713
▁తెలుసు	-9.17308
▁పార్లమెంటు	-9.17331
చ్చింది	-9.17404
డో	-9.17421
▁సల్	-9.17424
ిత	-9.17436
▁డె	-9.17665
ంజ	-9.17669
▁భావిస్తున్న	-9.17801
▁వెస్ట	-9.17886
శాల	-9.17912
▁ప్రాంతాల	-9.17954
▁లేని	-9.17985
ిట్జ	-9.17998
▁రామ	-9.18093
▁సమర్పించ	-9.18185
▁ఫెడర	-9.18295
▁చూడ	-9.18345
▁చెప్పిన	-9.18517
▁జట్టులో	-9.18613
వసం	-9.18828
▁బాధ్యతల	-9.1885
▁సరి	-9.18894
▁ఇంత	-9.18982
▁కమల	-9.19107
నగర్	-9.19118
▁నటి	-9.19123
▁చేసుకు	-9.19228
▁కర	-9.19337
▁గల	-9.19357
▁గెలిచి	-9.19437
ైక	-9.19438
▁పడింద	-9.19569
▁ఇంటి	-9.19593
▁వాడ	-9.19603
▁అంటున్నార	-9.19609
▁ఎంపీ	-9.19712
▁లక్ష్యం	-9.19804
▁ఎంఎ	-9.19836
▁కార్పొరే	-9.20004
▁ప్రారంభ	-9.20107
కం	-9.20238
▁పేర	-9.20253
▁కశ్మీర	-9.20339
▁కింగ్	-9.20346
స్తున్నాయి	-9.20477
▁మేనేజ	-9.2048
సేన	-9.20522
▁స్వర్ణ	-9.20729
వచ్చ	-9.208
▁మహ	-9.20852
▁చివర	-9.21009
జు	-9.21023
▁సర్వీసుల	-9.21044
▁ఊ	-9.21113
ఎల్	-9.21119
చ్చి	-9.21194
▁అనుమతి	-9.21227
▁ధ	-9.21338
జై	-9.21455
▁బర్	-9.21492
▁హార్	-9.21518
▁చో	-9.21608
వద్ద	-9.21633
▁హరి	-9.21704
▁మరణ	-9.21773
▁భా	-9.2183
ంచే	-9.21852
▁కొంత	-9.21863
▁తీసుకుంద	-9.21917
▁కావడం	-9.21936
యుల	-9.22023
▁సర్వే	-9.22131
▁రైతు	-9.2223
▁విష	-9.22235
తాను	-9.22305
▁వేసిన	-9.22311
చిన	-9.22418
▁నిర్ణ	-9.22439
▁అలీ	-9.22448
▁ఆత్మ	-9.22545
▁ఆతిథ్య	-9.22558
▁ఆవిష్కరణ	-9.22558
▁గోపీచంద్	-9.22558
▁జయలలిత	-9.22558
▁ఫోటో	-9.22558
▁బహుమతి	-9.22558
▁విశ్వసనీయ	-9.22558
▁సమీపంలో	-9.22558
▁నిర్వహణ	-9.22558
▁ఆలోచించ	-9.22558
▁శ్రీలంక	-9.22558
▁సింధు	-9.22558
▁ప్రెసిడెంట్	-9.22559
▁మాల్యా	-9.22559
▁స్వల్ప	-9.22559
▁ఫ్యామిలీ	-9.2256
▁పంజా	-9.22562
▁క్రీడా	-9.22562
▁అదన	-9.22564
▁ఎనిమిద	-9.22569
▁విలేకరుల	-9.22582
▁బంగ్లాదేశ	-9.22602
▁హర్ష	-9.22631
▁దినోత్సవ	-9.22637
▁పిటిషన్	-9.22649
▁రన్	-9.22658
▁కొద్ది	-9.2267
▁సంఖ్య	-9.22678
▁ముడి	-9.22699
▁మో	-9.22702
▁ఆహార	-9.22704
▁దేశీయ	-9.22731
▁హింస	-9.22759
నెల	-9.22769
▁తమిళంలో	-9.22823
▁మిగ	-9.22824
▁రాబో	-9.23069
▁ధరల	-9.23074
▁మోహన్	-9.23156
రాల	-9.2318
▁విధానాల	-9.23259
కల	-9.23332
▁పేర్ల	-9.23341
▁ఈవీఎంల	-9.23364
▁ఇవ్వాల	-9.23405
▁నిర్ణయించ	-9.2362
▁అతన	-9.23676
▁అందుకు	-9.23732
▁ఉగ్రవాదుల	-9.23781
న్ని	-9.23802
▁ఒకే	-9.2389
▁ఆరోపణల	-9.23953
▁అవుతుంది	-9.24036
▁డిఎ	-9.24086
▁పూర్	-9.24202
▁శాఖల	-9.2423
చేస్తూ	-9.24607
▁విదేశా	-9.24628
▁నిలిచిన	-9.24726
బెట్ట	-9.24907
▁నిత్య	-9.25006
▁స్వీ	-9.25041
▁ధను	-9.25074
▁రచయిత	-9.25123
▁అభిప్రాయ	-9.25138
▁కొనసాగ	-9.25175
ుకునేందుకు	-9.25352
ించి	-9.25372
ఖ	-9.25396
▁ప్రకటించిన	-9.25402
▁ఇచ్చింద	-9.25431
▁ఇప్ప	-9.25483
చే	-9.25695
వచ్చు	-9.2577
దరి	-9.25847
▁డిసెంబరు	-9.25869
తీ	-9.25972
నార్	-9.26168
▁తిరు	-9.26254
▁వెళ్లి	-9.26276
ిచ్చ	-9.26436
▁యు	-9.2656
▁రూపొందించ	-9.2656
▁బాల	-9.26584
▁తీర	-9.26779
▁లీ	-9.26835
▁విదేశాల	-9.26845
మీద	-9.26861
▁ఇంట	-9.26916
▁నవంబర	-9.26953
▁తెరకెక్కించ	-9.26977
▁ఇద్దర	-9.27057
▁అక్కడి	-9.27324
▁అల	-9.27327
▁ఏర్పడ	-9.27536
రోజు	-9.27562
▁ప్రమాణ	-9.27635
▁చెబుత	-9.27715
▁సీన్	-9.27743
▁దాం	-9.27748
▁అక్టోబర	-9.27874
▁కారు	-9.27889
కారం	-9.27937
▁స్థాన	-9.27948
శేఖ	-9.2797
▁ముంబైలో	-9.28066
▁ఉండ	-9.28127
లం	-9.28144
మయ్య	-9.28187
శ్రీ	-9.2828
▁గట్టి	-9.28293
▁బౌల	-9.28324
క్యూ	-9.28599
▁పూజ	-9.28668
▁పరిస్థితుల	-9.28696
ెట్	-9.28769
▁మనసు	-9.29106
▁అధిక	-9.2914
▁వినోద	-9.29219
▁ఇబ్బందుల	-9.29224
▁కథానాయిక	-9.29224
▁మంజూరు	-9.29224
▁సాంకేతిక	-9.29224
▁సొమ్ము	-9.29224
▁నమోదైంద	-9.29225
▁నిమిషం	-9.29225
▁ప్రైవేట	-9.29225
▁రాజధాని	-9.29225
▁సైన్యం	-9.29225
▁భేటీ	-9.29225
▁అన్నాడీఎంకే	-9.29225
▁స్థితి	-9.29225
▁టన్నుల	-9.29226
▁మీటర్ల	-9.29227
ాహ్న	-9.29227
▁ఫలితం	-9.2923
▁మారుతి	-9.29235
▁నటన	-9.29278
▁ఓటమి	-9.2928
▁స్టోరీ	-9.29283
▁క్రియే	-9.29284
▁చిత్రీకరణ	-9.29298
▁డిజి	-9.29319
▁డాక్టర్	-9.29332
▁బరిలోకి	-9.29345
▁కలసి	-9.29357
▁టీవీ	-9.29373
్ట్	-9.2938
▁జాద	-9.29405
▁మెరుగ	-9.29431
▁పాటల	-9.29483
▁రో	-9.29494
▁ఐదుగుర	-9.29529
ాంగ్	-9.29635
▁మార్పుల	-9.29679
▁కుమారుడ	-9.29706
▁సన్	-9.29719
▁అందుకున్న	-9.29757
▁పబ్లి	-9.29777
▁కార్యక్రమ	-9.29832
డ్మి	-9.29882
▁బ్యాట్	-9.29912
▁పరిచయ	-9.30036
▁సంచలన	-9.30303
▁చేస్తామ	-9.30337
▁వారిలో	-9.30423
▁కలిగి	-9.30426
▁కానుంద	-9.30465
▁కదా	-9.30472
▁పాయింట్	-9.30475
▁అవసరమ	-9.30596
▁కార్యాలయం	-9.30709
▁విధానం	-9.30772
▁వ్యవహారాల	-9.30824
▁ఇరు	-9.30856
▁స్మార	-9.30954
▁సంవత్సరంలో	-9.30979
ికీ	-9.311
▁విధించ	-9.31138
ర్మ	-9.31189
మో	-9.31223
▁సహాయ	-9.31234
▁అరవ	-9.31246
▁జరుగుతున్నాయ	-9.3125
▁చూస్తున్న	-9.31304
▁అత్యాచార	-9.31478
▁చేయాలి	-9.31488
▁జిల్లాలో	-9.31648
▁రాణించ	-9.31813
జర్	-9.31829
▁చాట	-9.31946
▁చెల్లించ	-9.3195
ులకు	-9.32002
▁మ్యా	-9.32085
▁కార్యకర్తల	-9.32094
▁రుణ	-9.3212
▁తొలగించ	-9.32412
▁రూపొందించిన	-9.32552
▁ఆమెకు	-9.32609
వేల	-9.32759
▁క్ష	-9.32814
ియా	-9.32998
▁శాత	-9.33022
▁హోమ	-9.33049
▁అంచనా	-9.33147
▁పంపించ	-9.33251
▁అప్పుడ	-9.33284
ేంద్ర	-9.33391
▁నచ్చ	-9.33445
ముల	-9.33675
▁హాక	-9.33862
▁వచ్చాయ	-9.33952
ధా	-9.34034
▁చంప	-9.34074
రేషన్	-9.34075
మణి	-9.34188
▁ప్రాంతం	-9.34191
పాల	-9.34324
▁ముస్లింల	-9.34328
▁భావించ	-9.34331
ిస్తూ	-9.34659
▁ప్రా	-9.34718
▁తొమ్మిద	-9.34847
▁షేర్ల	-9.35102
కొండ	-9.35108
మూర	-9.3512
న్యూఢిల్లీ	-9.3519
▁పోల	-9.35221
▁వయసు	-9.35293
ాడట	-9.35357
▁లేవ	-9.3541
▁ఆమోదించ	-9.35448
లుగా	-9.35488
బా	-9.35498
▁వెళ్ళ	-9.35661
▁ఒప్పందం	-9.35692
▁అభి	-9.35906
▁భారతదేశంలో	-9.35975
▁ఎమ్మెల్యేల	-9.36007
▁చేసినట్ల	-9.36188
▁ఉంటార	-9.36219
▁స్ట్ర	-9.36295
కపోవడం	-9.36306
▁రవీంద	-9.36344
▁చేపట్ట	-9.36365
▁ఉత్కంఠ	-9.36367
▁ఉత్పత్తి	-9.36367
▁తోసిపుచ్చ	-9.36367
▁పొజిషన్	-9.36367
▁బంతుల్లో	-9.36367
▁స్పెషల	-9.36367
▁స్వేచ్ఛ	-9.36367
▁ధోనీ	-9.36368
▁షట్లర్	-9.36368
▁సొంత	-9.36368
ప్రొఫె	-9.36368
▁వినిపించ	-9.36368
▁సందడి	-9.36368
▁స్మిత	-9.36369
▁వ్యక్తిగత	-9.3637
▁పలిక	-9.36371
▁లాలూ	-9.36373
▁తయారు	-9.36375
▁ఠా	-9.36378
▁మమత	-9.36379
▁నలుగుర	-9.36383
▁సందీప్	-9.36395
▁పాల్గొంటారు	-9.36405
▁సాహిత్య	-9.36405
▁పశ్చిమ	-9.36418
▁ఆధ్వర్యంలో	-9.36429
▁సాయిధ	-9.36441
సం	-9.36463
▁మొదలైంది	-9.36472
▁అంకిత	-9.36479
▁ఇంట్లో	-9.36497
▁పడగొట్ట	-9.36499
▁తీశా	-9.36512
▁ఏబీ	-9.36514
▁ఆలౌట	-9.36516
▁సమాన	-9.36516
▁అమ్మకాల	-9.36539
▁ఆర్మీ	-9.36586
▁ప్రొ	-9.36644
▁ఆస్తుల	-9.36713
షధ	-9.36744
▁మూల	-9.36985
▁బ్యాంకుల	-9.37021
ారా	-9.37049
▁చేశారని	-9.37057
▁బిగ్	-9.37069
▁స్థానం	-9.37109
▁బస్	-9.37117
▁థమన	-9.37121
▁ఆశ్రయించ	-9.37134
▁అయింద	-9.37168
ాహు	-9.37187
▁కుటుంబం	-9.3723
▁ఉందన్నారు	-9.37243
▁సందేశ	-9.37243
▁సైనికుల	-9.37269
ెం	-9.37306
▁విజయాల	-9.3742
▁నేనే	-9.37424
▁నిషేధం	-9.37428
▁మెడిక	-9.37546
▁చేస్తుంద	-9.37551
▁బై	-9.37621
సీసీ	-9.37696
▁లాల్	-9.37814
ష్ట	-9.37827
▁వే	-9.37872
▁పక్క	-9.37927
▁సమావేశాల	-9.37938
▁చే	-9.37939
రించ	-9.37981
▁ఫైట్	-9.38031
ప్పు	-9.38049
▁ఉద్యోగాల	-9.38144
▁ఓడించి	-9.38167
▁లభించ	-9.38308
కుల్	-9.38338
మైంది	-9.38342
బోతోంద	-9.38348
తంగా	-9.38385
▁కనీసం	-9.38409
▁టూర	-9.38442
▁పాట్నా	-9.38454
▁వీసాల	-9.38521
షా	-9.38658
▁లాభం	-9.38747
▁మూ	-9.38914
▁చేసింద	-9.38929
▁రే	-9.3906
▁రాజా	-9.39069
ేసి	-9.39073
▁చేసుకోవాల	-9.39086
కపోత	-9.3918
వడంతో	-9.39223
ందన్నారు	-9.39279
▁డాలర్లు	-9.39331
▁ఆటగాళ్లు	-9.39331
ధు	-9.3936
▁ఎమ్మెల్యే	-9.39496
▁బాస్	-9.39533
త్వం	-9.39608
▁ఎట్ట	-9.39612
ోన్న	-9.39662
▁రాష్ట్రాల	-9.39719
▁రావు	-9.39899
▁సినిమాల్లో	-9.39925
▁పంచ	-9.40026
▁మోదీకి	-9.40123
▁ఏమ	-9.40216
▁స్థాయిల	-9.4023
▁సంగ	-9.40407
వై	-9.40487
▁ఎన్నిక	-9.40509
▁ఎవరి	-9.40685
▁కావాల	-9.40691
▁ప్రయోగ	-9.40833
వార	-9.40915
▁నెహ్ర	-9.40937
▁పార్టీల	-9.41006
ఖ్	-9.41035
▁సవాల	-9.41085
▁ఎమ్మెల్యేలు	-9.41165
▁అప్పటి	-9.41451
తన	-9.41466
▁రౌండ	-9.41609
ంకర్	-9.41696
▁సౌ	-9.41749
▁ఓట్ల	-9.41796
▁రెండేళ్ల	-9.418
సింగ్	-9.41952
▁నిర్మాతగా	-9.41952
ాలకు	-9.42159
▁వేలం	-9.42173
మన్	-9.42367
▁మేక	-9.42515
▁రంగం	-9.4254
యిన	-9.42598
వాడ	-9.42603
▁పాటల్	-9.42634
▁వేగం	-9.42652
▁ణ	-9.42658
▁గుర్తించ	-9.4279
–	-9.42864
వేళ	-9.42875
▁సమీక్ష	-9.42934
మెంట్	-9.43067
▁వార్త	-9.43148
▁నీల	-9.43313
షే	-9.43538
లర్	-9.43594
స్టు	-9.43633
కృత	-9.43662
▁మర	-9.43751
▁క్లా	-9.43855
వంత	-9.43867
ొచ్చ	-9.43966
▁ఘ	-9.44021
▁మిథాలీ	-9.44047
జ్ఞ	-9.44059
▁వెనుక	-9.44059
▁ఇజ్రాయెల	-9.4406
▁కామెడీ	-9.4406
▁కేబినెట్	-9.4406
▁క్వార్టర్	-9.4406
▁పారిశ్రామిక	-9.4406
▁ప్రణాళిక	-9.4406
▁మూడేళ్ల	-9.4406
▁సరికొత్త	-9.4406
▁ఆఖరి	-9.4406
▁డిమాండు	-9.4406
▁తక్షణ	-9.4406
▁ఆంటోన	-9.44063
▁పూరీ	-9.44063
▁పత్రిక	-9.44065
▁ఏర్పాట్ల	-9.44065
▁విలేకర్ల	-9.44069
▁భార్య	-9.44069
▁భర్త	-9.4407
▁బిల్లు	-9.44073
▁ప్రక్రియ	-9.4408
▁భావిస్తోంద	-9.44083
▁ఉంటాయి	-9.44083
ువాత	-9.44089
▁అతిథి	-9.44103
▁చుట్ట	-9.44114
▁విశాఖపట్నం	-9.44116
ర్యానా	-9.44118
▁సంతకాల	-9.44121
▁గ్రీన	-9.44129
▁క్లోజ	-9.44131
▁హౌ	-9.44134
▁వారం	-9.44136
▁ఇన్వెస్టర్ల	-9.44136
▁ఇవ్వ	-9.44174
▁ఉంటాయన	-9.44184
▁వస్తుంది	-9.44196
▁చికిత్స	-9.4421
▁అవసరమై	-9.44282
▁ఒలింపిక్	-9.44283
న్నట్లు	-9.4429
▁ఆడియో	-9.44305
▁స్టో	-9.44322
▁ప్లే	-9.44371
▁అంశంపై	-9.44374
▁నాయకుల	-9.4444
▁మండలి	-9.44458
▁తీర్చ	-9.4447
▁అటు	-9.44506
▁రానా	-9.44533
▁పోల్చి	-9.44561
యింది	-9.44723
పురం	-9.44733
▁నారాయణ	-9.44872
▁ప్రతిపక్షాల	-9.44967
▁ఉండగా	-9.4514
▁చట్టాల	-9.45151
▁టైమ్	-9.45265
▁ప్రాణాల	-9.45283
▁సమయం	-9.45356
▁వస్తోంద	-9.45404
▁సర్వ	-9.45514
ెత్త	-9.45698
▁ఇష్టం	-9.45967
▁భవన్	-9.45974
▁కాన్	-9.45976
దిక్	-9.46012
ారెడ్డి	-9.46201
▁ఆయనను	-9.46247
రుణ్	-9.46332
▁వర్గ	-9.46342
▁ప్రారంభం	-9.46412
▁నాటి	-9.46618
ప్పటి	-9.46914
▁అధికారం	-9.46922
జం	-9.47147
▁సహ	-9.47282
ందర	-9.47577
ిష్	-9.47623
దో	-9.47724
గర్	-9.4785
▁అన్నద	-9.48036
వన్	-9.48057
▁శంకర	-9.48163
▁దీనిని	-9.48182
రన్	-9.48479
్రి	-9.48738
▁ముందుగా	-9.4884
లింగ్	-9.48856
పోత	-9.48883
చర్	-9.49415
▁విక్రయించ	-9.49513
▁మాటల	-9.49646
▁అయి	-9.49701
తనం	-9.49807
ంటున్నార	-9.5009
▁హో	-9.50142
▁దీప	-9.50166
▁నిర్మాణ	-9.50166
▁బాల్	-9.50194
మె	-9.50215
▁అమెరికాలో	-9.50288
▁నిర్	-9.50311
▁అవుతుంద	-9.50464
ేది	-9.505
పేట	-9.50515
్యం	-9.5064
ుండటం	-9.50667
▁ఆధిక్యం	-9.50709
▁లక్ష	-9.50729
చార	-9.50739
▁రాస	-9.5075
▁అజ	-9.50753
▁మధు	-9.50753
▁తదితర	-9.50764
▁పరిశ్రమల	-9.50835
న్నత	-9.51004
▁రాజ్యాంగ	-9.51014
▁ప్రభా	-9.51057
పె	-9.51057
ుకున్నారు	-9.51068
▁వ్యాప్త	-9.51081
చె	-9.51128
▁సూచించ	-9.51232
▁చూపిస్త	-9.5126
▁టై	-9.5141
▁త్వర	-9.51412
▁చేరింద	-9.51468
భా	-9.51745
▁ఫ్రా	-9.51769
▁విద్య	-9.51884
▁నెగ్గి	-9.51973
▁బయటపడ	-9.52087
ుకుంటున్నా	-9.52143
వాస	-9.52304
▁రూపొంద	-9.52327
ిండీ	-9.5233
కన్నా	-9.52336
▁దక్షిణ	-9.52392
▁బంగ్లా	-9.52392
▁డొనాల్డ్	-9.52393
▁పాఠశాల	-9.52393
▁ప్రతిపాదన	-9.52393
▁సరఫరా	-9.52393
▁అభ్యర్థుల	-9.52393
▁ఇష్యూ	-9.52393
▁ఎదుర్కొంటున్న	-9.52393
▁ఎన్డీయే	-9.52393
▁గంగూలీ	-9.52393
▁చండీగ	-9.52393
▁పుణె	-9.52393
▁లైంగిక	-9.52393
▁విద్యార్థి	-9.52393
▁సంబంధాల	-9.52393
▁ఆదర్శ	-9.52393
▁లక్నో	-9.52393
▁సిన్హా	-9.52393
▁అప్పగించ	-9.52394
▁కుమార్తె	-9.52394
▁ఇంటర్నేష	-9.52396
▁ఖరారు	-9.52396
▁బయో	-9.52397
▁సమితి	-9.52398
▁మెహ	-9.52398
▁ఏపీ	-9.52399
▁టె	-9.52402
▁పోస్టర్	-9.52406
▁నేషనల	-9.52407
▁పేసర్	-9.52412
▁సరైన	-9.52414
▁ఇప్పటివరక	-9.52416
▁లభిస్తుంద	-9.52423
▁రేటు	-9.52424
▁ఫీల్డ	-9.52424
▁రవీంద్ర	-9.52431
▁స్టేషన్	-9.52432
▁క్రీడల	-9.52433
▁ఐదో	-9.52434
▁జ్యోతి	-9.52453
▁మనోజ్	-9.52455
▁హోదా	-9.52466
▁వాదీ	-9.52481
ంతర	-9.52483
▁బస్సు	-9.52507
▁కౌ	-9.52518
▁నిరోధక	-9.52548
▁వినియోగం	-9.52557
▁చేనేత	-9.52557
ళ్లు	-9.52563
▁స్కూల్	-9.52564
▁స్థానిక	-9.52592
▁వికాస	-9.52602
▁జరిగాయి	-9.52656
▁ధోరణి	-9.52728
▁ఆప	-9.52782
▁బెంగాల	-9.52903
▁అనుభవం	-9.52983
▁రాసిన	-9.53002
▁నాయుడు	-9.53126
▁ఆదాయప	-9.53164
పెట్ట	-9.53227
▁గ్లో	-9.53252
▁రోజుల్లో	-9.53363
▁పన్నుల	-9.53364
▁బల	-9.53376
▁ఖాతాల	-9.53383
▁మారిన	-9.53506
▁రు	-9.53522
▁పరాజయం	-9.53525
▁పతకం	-9.53546
▁ఎక్కడ	-9.53579
▁పోరాటం	-9.53583
▁సెప్టెంబరు	-9.53634
▁భాస్	-9.53676
▁వస్తే	-9.53689
▁ప్రాధాన్య	-9.53717
▁ప్రయత్నిస్తున్న	-9.53819
▁వారంలో	-9.53876
▁సుందర	-9.53883
▁పట	-9.53915
బోతున్న	-9.54119
▁చేర్చ	-9.54179
▁వివాదాల	-9.54229
▁ఉండడం	-9.54257
▁ఆర్ట్	-9.54286
▁కార	-9.54299
▁చర్య	-9.54386
ంజ్	-9.54479
▁కిలోలు	-9.54533
ిట్	-9.54617
▁రాజీ	-9.54678
మూ	-9.54899
▁వారాల	-9.54936
▁మై	-9.55169
డికి	-9.55179
▁రంగాల	-9.55187
్టర్	-9.55374
▁పెరుగుతున్న	-9.55493
రేట్	-9.55602
▁నెలలు	-9.55607
టైనర్	-9.55654
▁లాభ	-9.55679
ెల	-9.56087
▁నిర్ణయించింద	-9.56222
త్తు	-9.5639
▁నెలకొల్ప	-9.56459
వాస్	-9.5646
▁సన్నివేశ	-9.56485
▁టే	-9.56531
▁రుణాల	-9.56674
▁వాళ్లు	-9.5674
▁హ్యా	-9.56871
▁వచ్చార	-9.56913
▁టాస్	-9.56947
పిక్	-9.56964
▁భావ	-9.57024
▁పరి	-9.57139
▁విమానాశ్రయ	-9.57196
పాటి	-9.57196
▁సరస	-9.57349
▁అతడ	-9.57366
▁తేల్చ	-9.57373
శం	-9.57407
▁తెలిపిన	-9.57491
రియా	-9.5751
పతి	-9.57553
▁వచ్చ	-9.57569
▁తగ్గి	-9.57574
▁హీరోల	-9.57615
▁ఐఎ	-9.57669
▁ఆది	-9.5771
యాల	-9.5775
▁పాడ	-9.5785
▁చంద	-9.58042
▁చెర	-9.58172
▁భాషల	-9.58221
ెండ్	-9.58418
ట్టి	-9.5843
▁పే	-9.5845
▁వెల	-9.58645
▁రాణించడం	-9.58803
▁ఉన్నత	-9.59109
▁సంవత్సరాల	-9.59152
త్రా	-9.59164
▁సంఘ	-9.59293
▁కిలోల	-9.59341
▁సంఘాల	-9.59385
వచ్చునన	-9.59825
తరం	-9.59853
ుకోవడ	-9.59874
▁పెంచాల	-9.59963
రత్న	-9.5997
▁సంచలనం	-9.60014
▁పరిశీలించ	-9.60034
ుల్లో	-9.60082
ున్నట్టు	-9.6055
త్యం	-9.60605
▁తరహా	-9.60648
▁పాటించ	-9.60718
చిత	-9.61069
▁జీవితం	-9.612
▁నోటీసుల	-9.61204
▁జరుగ	-9.61245
▁సబ్	-9.61476
▁అవగాహన	-9.61484
▁ఒత్తిడి	-9.61484
▁అత్యధిక	-9.61484
▁అనుగుణంగా	-9.61484
▁అనుష్క	-9.61484
▁ఆర్జేడీ	-9.61484
▁కొనుగోలు	-9.61484
▁నియోజకవర్గ	-9.61484
▁పర్యావరణ	-9.61484
▁ప్రత్యర్థి	-9.61484
▁ముగిసింద	-9.61484
▁వాణిజ్య	-9.61484
▁వినియోగదారుల	-9.61484
▁వినూత్న	-9.61484
▁విస్తరించ	-9.61484
▁స్టూడియో	-9.61484
▁గ్రామీణ	-9.61484
▁జనాభా	-9.61484
▁మోటార్	-9.61484
▁పోర్టు	-9.61484
▁తయారీ	-9.61484
▁వ్యాఖ్యానించ	-9.61484
▁శ్రద్ధ	-9.61484
▁న్యాయస్థానం	-9.61485
▁కఠిన	-9.61485
▁సత్తా	-9.61485
▁ఆఫీస	-9.61485
▁న్యాయవాది	-9.61485
▁విద్యా	-9.61486
▁వసూల	-9.61486
▁జనతా	-9.61487
▁మైనారిటీ	-9.61488
▁కాపాడ	-9.6149
▁ముగించ	-9.61491
▁ప్రశంసల	-9.61491
▁చేరుకుంద	-9.61492
▁ప్రయాణికుల	-9.61492
▁సీక్వె	-9.61493
క్యాపిటల	-9.61497
▁సంతకం	-9.61508
▁పదవీ	-9.61509
▁ప్రమోషన్	-9.61516
▁చూడాలి	-9.61518
▁కవిత	-9.61519
▁చూశా	-9.61528
▁ఉప్పు	-9.61528
▁ట్రెండ్	-9.61534
▁ఫండ్	-9.61537
▁హరితేజ	-9.61543
▁అనూహ్య	-9.6155
▁అత్యుత్తమ	-9.6155
▁అందువల్ల	-9.6155
▁అప్పట్లో	-9.61552
▁పలువుర	-9.61556
▁ఉంటున్న	-9.61557
▁సెక్షన్	-9.61568
▁ఖండించ	-9.61585
▁తప్పనిసరి	-9.6159
▁ఆసుపత్రి	-9.61594
▁నగరంలో	-9.61599
▁శుభాకాంక్షలు	-9.61605
▁ఆవిష్కరించారు	-9.61616
▁ఎమోషన్	-9.61619
▁ఇండో	-9.61634
▁నడిపించ	-9.61652
▁ఏడుగుర	-9.61663
జాగ్	-9.6169
▁రోహిత	-9.61727
▁విండీ	-9.61737
▁సోద	-9.61777
▁వినాయక	-9.61782
▁విదేశాల్లో	-9.61784
▁విరుచుకుపడ	-9.61795
▁బాలాజీ	-9.61797
▁కార్మికుల	-9.61809
▁మృతి	-9.61826
▁రాజకీయాల్లో	-9.61827
▁స్పోర్ట్	-9.61857
▁ప్రశంసించారు	-9.61874
ప్రా	-9.61886
▁లేకపోవడం	-9.619
▁బ్రిట	-9.61917
▁దిశగా	-9.61989
▁వ్యక్తుల	-9.62003
▁ఒక్కో	-9.62012
▁పరిణామాల	-9.62047
▁ప్రశ్నల	-9.62092
▁ఉద్యోగుల	-9.62109
▁తెల	-9.62128
▁కనుక	-9.62165
▁వదిల	-9.62173
▁విమానం	-9.62195
▁కారణాల	-9.62212
▁లంక	-9.62217
▁పాత్రల్లో	-9.62306
▁ప్రయత్నం	-9.6234
▁ఆల	-9.62425
▁రూపంలో	-9.62436
▁రానున్న	-9.62441
▁ఉత్తర్వులు	-9.62456
▁ఉండదు	-9.62463
▁పురస్కార	-9.62518
▁జాన్	-9.62528
ుకునే	-9.62642
▁ప్రయోజనాల	-9.62727
▁బాంబు	-9.62773
▁నిజంగా	-9.62796
▁సామర్థ్యం	-9.62812
▁శర	-9.62836
▁ఆయా	-9.62919
కోసం	-9.62922
▁చేస్తాన	-9.62925
▁ప్రయత్నించ	-9.62927
▁అధికారిక	-9.62941
▁బాట	-9.62961
▁పంపాల	-9.63044
▁పరిమిత	-9.63044
ర్లాండ్	-9.63058
ద్ర	-9.63097
ాలతో	-9.63236
ర్జీ	-9.63241
▁ఇమ	-9.63308
▁ఉత్తరా	-9.63378
▁స్వా	-9.63417
▁గాయం	-9.63487
నేను	-9.63507
▁మనో	-9.63741
▁ర్మ	-9.63797
▁టాక్	-9.63819
ధన	-9.63867
▁ఓడ	-9.6389
▁జీతాల	-9.63896
▁సిట్	-9.63897
యంగ్	-9.63957
▁అత	-9.63992
మండ	-9.63998
▁గూ	-9.64005
▁జరిపిన	-9.64014
త్రి	-9.6407
▁క్యా	-9.64188
బట్టి	-9.64313
▁నటిస్తో	-9.64318
▁బాధ	-9.64381
▁నిర్మాణం	-9.64406
▁తీసిన	-9.64434
▁వైట్	-9.64459
▁మరొక	-9.64473
ొని	-9.64501
▁మీకు	-9.64614
▁అక్టోబరు	-9.6466
లేని	-9.64664
జన్	-9.64698
▁పరీక్ష	-9.64701
▁మెగా	-9.64751
▁మిక్స	-9.64783
టెక్	-9.64909
▁చేస్తార	-9.64919
▁వాటా	-9.64957
▁ఇస్లామి	-9.65047
▁పరిష్కరించ	-9.65048
ెక్క	-9.65111
▁చేయడంతో	-9.65233
▁ఉపయోగించ	-9.65375
ిస్తోంద	-9.65396
▁ఈడీ	-9.65422
▁వాదన	-9.65475
▁జెన్	-9.65537
▁ట్రి	-9.65581
ింక్	-9.65594
డితే	-9.65768
▁విషయాల	-9.65906
ిస్ట్	-9.65944
▁సీడ	-9.65981
జాయ్	-9.65998
నికి	-9.66088
యాన	-9.66185
▁ధన	-9.66199
వార్	-9.66237
▁మారింద	-9.66321
న్నాయి	-9.66367
▁పాలన	-9.66609
▁డం	-9.66617
▁సో	-9.66849
▁చేశాయ	-9.66883
▁డిపాజిట్ల	-9.66918
▁నీ	-9.67065
▁తెలంగాణలో	-9.67302
ిఘా	-9.67359
▁మద	-9.67422
▁స్వరా	-9.67436
▁నె	-9.67533
▁మరణించ	-9.67546
▁మహారాష్ట్ర	-9.67651
▁నటిస్త	-9.67652
▁చేరిన	-9.67775
▁సభ్య	-9.67807
▁క్రీ	-9.68033
▁కథను	-9.68099
▁పైకి	-9.68101
▁కులాల	-9.68172
▁హి	-9.68182
▁సిద్ధం	-9.68185
▁సే	-9.68611
▁ఆప్	-9.68649
లైట్	-9.68676
▁వ్యాపారం	-9.68808
▁అనంత	-9.68855
▁బోర్డ	-9.68898
▁నిర	-9.68912
పుర	-9.69168
▁చేయాలన్న	-9.69226
▁చెప్పి	-9.69235
▁వీరు	-9.69342
యల్	-9.69417
▁చెప్తున్నార	-9.69422
ైత	-9.69428
డాన్	-9.6966
చేశా	-9.6969
▁సైనిక	-9.69715
▁విభాగం	-9.69734
▁నిధులు	-9.69876
మన్నార	-9.69951
▁సాధించి	-9.69972
▁ఒడి	-9.69993
▁మొదట	-9.70004
ఘ	-9.70042
ప్రకాశ	-9.7024
ప్రేమ	-9.70288
▁ఆసక్తికరం	-9.70296
రాత్రి	-9.70373
▁బంధ	-9.70475
▁చెక్	-9.70607
▁ఇటీవ	-9.7071
▁రేపు	-9.70858
▁కారణం	-9.70961
▁కౌన్సిల	-9.7106
▁నిరాశ	-9.71168
▁ఊర	-9.71189
▁స్వీకరించ	-9.71231
▁ఫార్మా	-9.71254
▁స్థ	-9.71283
షణ్	-9.71303
▁గురి	-9.71364
ిల్ల	-9.71446
▁నివేద	-9.71466
▁గుర్	-9.71476
▁ఆశ్చర్య	-9.71484
▁అధిగమించ	-9.71484
▁తీసుకొచ్చ	-9.71484
▁ద్రావిడ	-9.71484
▁పర్యాటక	-9.71484
▁పాత్రధారులు	-9.71484
▁ప్రత్యక్ష	-9.71484
▁ప్రాథమిక	-9.71484
▁యోజన	-9.71484
▁వలసదారుల	-9.71484
▁విశ్రాంత	-9.71484
▁వ్యవసాయ	-9.71484
▁అశోక	-9.71484
▁చెలరేగ	-9.71484
▁మాయావతి	-9.71484
▁మిశ్రా	-9.71484
▁ములాయం	-9.71484
▁వివరణ	-9.71484
▁ఫైనాన్షియ	-9.71484
▁హెన్రీ	-9.71484
▁అలవాట	-9.71484
▁యూరోప	-9.71484
▁రష్యా	-9.71485
ధీనం	-9.71485
▁సక్సె	-9.71485
▁ర్వాత	-9.71485
▁ఫడ్నవ	-9.71485
▁చిన్నారి	-9.71486
▁బోయపాటి	-9.71486
▁ఇంటర్వ్యూ	-9.71486
▁సీరియ	-9.71487
▁వేచి	-9.71488
▁సైకిల్	-9.7149
ిండియా	-9.71491
▁ఇంటర్న	-9.71492
▁ఈవెంట్	-9.71494
▁అందజేశా	-9.71495
▁వెనక్కి	-9.71495
▁దిగజార	-9.71497
▁దీక్ష	-9.71498
▁దిగువ	-9.71498
▁సిక్సర్ల	-9.71504
▁వ్యక్తమవుత	-9.71507
▁కనిపిస్తోంది	-9.71514
▁రేసు	-9.71517
▁అంబానీ	-9.71521
▁అక్షర	-9.71531
▁మహ్మ	-9.71535
▁చేస్తున్నాం	-9.71538
▁తుది	-9.71544
▁ప్రతినిధుల	-9.71557
▁స్టేట	-9.71569
▁సుష్మా	-9.71575
▁స్ర్కీన	-9.71584
▁కీ	-9.716
▁రాశారు	-9.71617
▁స్క్ర	-9.71627
▁రోడ్డు	-9.71629
▁గోవా	-9.71634
▁సీఏ	-9.7164
▁చాంద	-9.71649
▁కొరత	-9.71656
▁మిగిలిన	-9.71678
▁కార్తీ	-9.71691
▁రామకృష్ణ	-9.71708
▁ఆఫర్	-9.71718
▁దారి	-9.71728
▁ప్రయత్నిస్తోంద	-9.71733
రాణి	-9.71761
వ్వు	-9.71776
▁అప్ప	-9.71801
▁పోరు	-9.71816
▁పుట్టినరోజు	-9.7186
▁కాజ	-9.71896
కర్త	-9.71958
▁అఖిలేశ	-9.72025
▁ఇంకో	-9.72056
▁బ్రా	-9.72063
శారు	-9.721
▁స్టాలిన	-9.72108
▁బాబా	-9.72126
▁భట్	-9.7213
▁ప్రారంభమై	-9.72273
▁ఐటీ	-9.72403
▁మొ	-9.72449
▁రంజ	-9.72457
▁సాధ్య	-9.72465
▁లక్ష్మి	-9.72476
▁గోపాల	-9.72498
▁థ్రిల్ల	-9.72539
▁భయ	-9.72542
▁గారు	-9.72562
▁కావడంతో	-9.7259
▁అనుబంధ	-9.7263
▁ఫ్రాన్స	-9.72657
▁నివాసం	-9.72725
▁నందు	-9.72865
▁ఏళ్ళ	-9.72911
▁నారా	-9.72918
▁పథకం	-9.72935
నన్నారు	-9.72946
నాటి	-9.72958
▁అంశం	-9.73048
▁ఇంతకు	-9.73096
▁లే	-9.7311
శ్వం	-9.73154
▁కశ్మీరు	-9.73233
▁జమ్మూకశ్మీరు	-9.73307
▁అమల	-9.73397
▁వార్	-9.73403
▁రావాల	-9.73511
టిక్	-9.73566
▁ఖే	-9.73616
▁షేర్	-9.73738
▁సటి	-9.73745
▁పరిమితి	-9.73795
▁అనుకున్న	-9.73895
▁దళాల	-9.74071
▁అంతే	-9.74083
▁బే	-9.74096
▁అతడి	-9.74133
▁ఎక్క	-9.74245
ిఫ్ట	-9.74275
బడి	-9.74332
▁ప్రారంభించిన	-9.74344
▁నడిచే	-9.74458
▁అంశ	-9.74477
క్షన్	-9.74507
▁ఓవర్ల	-9.74589
▁నిర్వహించే	-9.74726
▁కాబట్ట	-9.74731
▁మైన	-9.74748
▁గంగా	-9.74899
పరమై	-9.7496
▁మ్	-9.75008
▁నూ	-9.75101
▁లై	-9.75158
ూర్	-9.75292
▁గోయ	-9.75319
థా	-9.75356
్లా	-9.75365
▁అవి	-9.75543
▁సమీర	-9.75578
▁తానే	-9.7561
▁చర్చల	-9.75655
▁దక్కించుకు	-9.75663
▁రవిశ	-9.75758
▁న్నీ	-9.75808
ఉ	-9.75848
డంలో	-9.75852
▁రాజకీయాల	-9.75855
▁సంఘటనల	-9.75967
ెక్స	-9.76071
దైన	-9.76099
▁ప్రస	-9.76158
▁ఉమ	-9.76175
▁క్రికెటర్ల	-9.7618
▁తరలించ	-9.76206
▁సిఫారసు	-9.76231
ూల	-9.76309
▁వంద	-9.76333
వుండ	-9.7635
▁కార్ల	-9.76431
▁నిషేధ	-9.76603
▁చేయలేద	-9.76702
▁హాస	-9.76785
▁నది	-9.77009
▁కోస్ట	-9.77117
▁కథల	-9.77219
▁విషయాలు	-9.77289
▁నిలిప	-9.77318
స్తున్నట్లు	-9.77335
▁ఇస్తున్న	-9.77575
ిశ	-9.77604
యత	-9.77607
▁అవ	-9.77608
▁ఎవ	-9.77628
▁ఫు	-9.77676
తూ	-9.77729
▁సేన	-9.77788
▁సంఘటన	-9.77818
▁ప్రయాణించ	-9.77998
▁సీట్ల	-9.78013
రాజ	-9.78018
▁ఆటో	-9.78078
▁రచయితల	-9.78083
▁సెబ	-9.78221
జో	-9.78256
ర్ట్	-9.7833
ర్శ	-9.78379
▁అయ్యాయ	-9.78433
▁హాల్	-9.78469
▁అన్నా	-9.78538
▁విన్న	-9.78566
రఫు	-9.78596
▁అంటున్నా	-9.7888
▁ప్రారంభమైంద	-9.78887
▁వెట	-9.79
▁అమర్	-9.79016
▁రఘు	-9.79019
▁సమర్పించిన	-9.79052
▁దళ	-9.79329
నాడు	-9.79365
▁సంప్రదాయ	-9.79419
▁కార్డు	-9.7946
▁నెహ్	-9.79573
▁సంవత్సర	-9.7964
ించడంతో	-9.79823
డిగా	-9.79862
▁కొనసాగించ	-9.79957
ిటీ	-9.80095
హిల్	-9.80202
▁పక్కన	-9.80256
కూడదన	-9.80289
లిన్	-9.8029
▁నవ్వ	-9.80365
▁న్న	-9.80392
సినిమా	-9.80434
మెన్	-9.80476
▁భావిస్తున్నా	-9.80563
▁చూసే	-9.80785
ండర	-9.80841
▁అడ్డు	-9.80911
▁అభిమాన	-9.81033
▁సమాచార	-9.81054
▁భారతీయుల	-9.81079
లాక్	-9.8114
▁వ్యవహరించ	-9.81188
▁మరికొ	-9.81219
మౌళి	-9.81289
ఇంద్ర	-9.81296
▁అంచనాలు	-9.81326
నారాయణ	-9.81374
ద్వారా	-9.81416
భారత	-9.81425
▁పార	-9.81436
▁చల	-9.81452
అమ్మ	-9.8146
శివ	-9.81557
తున్నారు	-9.81579
▁తక్కువ	-9.81651
▁తీసుకుంటున్న	-9.81689
పట్	-9.81801
▁మార్పు	-9.81834
▁శ్ర	-9.81963
వెల్త	-9.82016
రూమ	-9.82045
▁చెన్నైలో	-9.82094
▁తనిఖీ	-9.82116
ధ్యం	-9.82251
▁అడుగుపెట్ట	-9.82354
▁ప్రజాస్వామిక	-9.82419
మూర్తి	-9.82505
▁సమావేశ	-9.82543
▁క్రిస్	-9.82548
▁అకాడమీ	-9.82595
▁ఐక్యరాజ్య	-9.82595
▁ప్రస్తావించ	-9.82595
▁ఫౌండ	-9.82595
▁అమేథీ	-9.82595
▁అర్హత	-9.82595
▁ఆవేదన	-9.82595
▁ఉత్తమ	-9.82595
▁ఉపాధి	-9.82595
▁ఉమ్మడి	-9.82595
▁కంప్యూటర్	-9.82595
▁కనిష్ఠ	-9.82595
▁కసరత్తు	-9.82595
▁క్షమాపణ	-9.82595
▁త్రివిక్ర	-9.82595
▁దిగుమతి	-9.82595
▁పరిధిలో	-9.82595
▁పళనిస్వామి	-9.82595
▁వసూళ్ల	-9.82595
▁విరుద్ధ	-9.82595
▁విలియమ్స	-9.82595
▁వైఖరి	-9.82595
▁శాశ్వత	-9.82595
▁సంబంధం	-9.82595
▁సావిత్రి	-9.82595
▁సెకన్ల	-9.82595
▁సెక్రట	-9.82595
▁హెచ్చరించార	-9.82595
▁ఛేదన	-9.82595
▁నిలకడ	-9.82595
▁రవాణా	-9.82595
▁విష్ణు	-9.82595
▁తీర్చిదిద్ద	-9.82595
▁ప్రశాంత	-9.82595
▁సుజుకీ	-9.82595
▁అగ్రస్థానం	-9.82596
▁వ్యాధి	-9.82596
▁డైరెక్ష	-9.82596
▁దక్షిణాది	-9.82596
▁తేజస్వి	-9.82597
▁సెకండ	-9.82597
ేడాది	-9.82598
ెయింట్	-9.82599
▁ప్రీమియ	-9.82599
▁జయంతి	-9.82599
▁అత్యు	-9.826
▁ఫైనాన్	-9.82601
ణ్ణ	-9.82604
▁వెనుకబడి	-9.82604
▁ఉక్కు	-9.82605
▁కచ్చిత	-9.82606
▁ఆయిల్	-9.82606
▁దూకుడు	-9.82607
▁ఆపరేషన్	-9.82608
▁అగ్ర	-9.82611
▁ఎంట్రీ	-9.82614
ితమే	-9.82614
▁విజయవంతం	-9.82617
▁గ్రౌండ	-9.82618
▁బ్రాండ్	-9.82618
▁యూనివర్సిటీ	-9.82623
▁నిరాకరించ	-9.82625
▁బంతి	-9.82625
▁అభిప్రాయపడ్డా	-9.82627
▁ప్యా	-9.82633
▁ఆకట్టుకుంటాయి	-9.82646
▁మనీలా	-9.82655
▁సహజ	-9.82657
▁జీఎస్టీ	-9.8266
▁అసోసియేషన్	-9.82682
▁కామన్	-9.82689
▁టెండ	-9.82693
▁పెళ్ళ	-9.82707
▁ఎదుర	-9.8272
▁కన్నడ	-9.82722
▁ఆగ	-9.82741
▁లిఫ్ట	-9.82741
▁ఉత్తరప్రదేశ	-9.82742
▁కమాండ	-9.82745
▁ముందుకొ	-9.82757
▁వ్యాస	-9.82763
▁విశాల	-9.82765
ించేందుకు	-9.82775
▁ముద్ర	-9.82775
▁రొమా	-9.82785
▁బాగ్	-9.82825
▁రంగాల్లో	-9.8285
▁పుట్టిన	-9.82851
▁లాంగ్	-9.82911
▁మియా	-9.82932
▁వ్యవహరిస్తున్న	-9.82933
స్తే	-9.8296
▁స్వచ్ఛ	-9.82966
▁పోర్ట్	-9.83013
▁చిత్తు	-9.83029
మాట	-9.83031
▁తరంగ	-9.8305
▁ఆస్ట్రేలియ	-9.83084
▁అధ్యయనం	-9.83088
▁అవసరాల	-9.83112
▁చమురు	-9.83113
▁రాష్ట్రాల్లో	-9.83127
ుకుంటోంద	-9.83129
▁భరత	-9.83131
▁అబే	-9.83138
▁ఎప్పటిక	-9.83174
▁ప్రారంభోత్సవ	-9.8319
▁యాత్ర	-9.83208
▁సంస్కృతి	-9.83215
▁దాటి	-9.83233
ుడైన	-9.83253
▁విశ్వనాథ	-9.83273
▁ఆహ్వానించ	-9.83276
▁మోస	-9.83304
▁పోషిస్తున్న	-9.83343
▁టీసీ	-9.83345
▁ప్రియ	-9.83348
▁స్టేడియంలో	-9.8335
▁అభ్యంతరాల	-9.83354
▁రజతం	-9.83391
గ్రామ	-9.83411
▁పదే	-9.83413
ేశ్	-9.83414
▁అనుమానం	-9.83419
▁బాక్స	-9.83461
▁పడిపోయ	-9.83551
▁మార్గం	-9.83592
▁లిస్ట	-9.83593
▁ప్రవేశించ	-9.83597
▁విద	-9.83603
కథ	-9.83624
స్తూ	-9.83637
▁పుస్తకంలో	-9.83652
▁బీజ	-9.83691
ప్పుడ	-9.83716
▁బాహుబలి	-9.83743
కార	-9.83779
▁యోగా	-9.83799
▁పద	-9.83821
▁అణ	-9.83822
ిశో	-9.83824
మేష్	-9.83875
▁ఎండి	-9.83967
▁మైదానం	-9.8399
▁ప్రకాశ	-9.84019
▁అనుమానాల	-9.84019
నంతపురం	-9.84031
▁చేపట్టారు	-9.84043
▁నన్న	-9.84067
▁స్వీకార	-9.84075
▁ద్వి	-9.84086
▁మంత్రులు	-9.84093
▁ట్రస్ట	-9.84181
రాక్	-9.8422
▁నాయకుడ	-9.84241
▁లియా	-9.84326
▁చావ	-9.84331
▁వ్యాఖ్యల	-9.84343
ౌ	-9.84349
▁పూన	-9.84369
ిస్తున్నాం	-9.84385
▁ఉన్నట్టు	-9.84432
ువల్	-9.84448
▁టెన్	-9.84513
త్య	-9.84589
▁రణ	-9.84614
▁క్యూ	-9.84795
క్రమంలో	-9.84824
▁యూనియ	-9.84865
▁అనుకుంటున్న	-9.84869
రణ	-9.84929
▁దాఖలై	-9.8493
▁మధుర	-9.84961
▁ఆరంభ	-9.84966
▁కొనసాగుతోంద	-9.84991
▁కొండ	-9.85003
▁ఛార్జీల	-9.8502
▁దీప్	-9.85091
▁విధానాన్న	-9.8515
▁అడిగ	-9.85163
కేశ్	-9.85293
▁యుఎ	-9.85424
మన్న	-9.85442
▁అంగీకరించింద	-9.85467
ర్ల	-9.85484
▁జమ	-9.85742
▁ఇంటిక	-9.85792
▁వీలు	-9.85804
▁రూప	-9.859
▁నేర	-9.85952
▁స్వర్ణం	-9.86036
▁ఐసి	-9.8608
▁విమర్శించ	-9.86151
దంతా	-9.86272
▁కుట్ర	-9.8637
▁లాభాల	-9.86451
▁అరబ	-9.86518
▁కాని	-9.86564
▁నవంబరు	-9.86601
▁వెనక	-9.86667
▁తెరకెక్కుత	-9.86672
గిరి	-9.86747
▁కార్డుల	-9.86805
▁భిన్న	-9.87074
▁ఇందు	-9.87079
▁టామ	-9.8712
▁లేఖలో	-9.87307
▁ప్రేక్షకుల్	-9.87387
▁ఉద్యోగ	-9.87426
▁కొర	-9.87585
ండడం	-9.87784
కాలం	-9.87868
▁వేయ	-9.87907
▁తారక	-9.87974
▁చేసుకున్నా	-9.8798
స్తామ	-9.88037
▁ఫోన్ల	-9.88073
▁బార్	-9.8813
లేకపోయ	-9.8821
▁విధాన	-9.88265
▁కొలి	-9.88376
▁షార్	-9.88416
పెడతా	-9.88443
▁చూస్త	-9.88478
▁నిరోధ	-9.88499
▁కాలేద	-9.88563
నున్నాడ	-9.88611
సిస్	-9.88674
▁వెయ	-9.88788
ంద్	-9.88894
▁సార్	-9.889
▁కష్టాల	-9.89056
ోల్	-9.89064
▁జరగను	-9.89109
▁రం	-9.89252
ళ్ళ	-9.89296
▁రోజులు	-9.89371
▁పతక	-9.89409
య్యే	-9.89466
▁సవరణ	-9.89548
▁చేయబోతున్న	-9.89576
రుగు	-9.89627
యాన్	-9.89646
▁రాష్ట్రం	-9.89662
▁పరిశీలించి	-9.89677
వడ	-9.89683
▁కార్యాలయ	-9.89723
▁చేసుకో	-9.89728
▁పెట్టి	-9.89788
డూ	-9.8981
▁బిఎ	-9.89844
యాస	-9.89886
▁మిల	-9.89898
చేయ	-9.89977
ేమో	-9.90029
ంచిన	-9.90084
ట్లుగా	-9.90115
▁కొం	-9.90192
▁వీరిద్దర	-9.9024
▁ఈయన	-9.90339
నంద్	-9.90432
▁నిర్ణయాల	-9.90492
▁కంగన	-9.90578
▁ఇస్లామ	-9.90578
▁హక్కు	-9.9059
▁లేకపో	-9.90646
▁రోడ్	-9.90958
▁సైట్	-9.90973
మల్	-9.91054
యమ	-9.91101
ార్థ	-9.91146
లిటీ	-9.91201
▁చూస	-9.91202
▁ఇచ్చార	-9.91224
▁దే	-9.91262
ర్మన్	-9.91526
▁వస్తాయ	-9.91527
▁కనీస	-9.91527
ందరి	-9.91614
▁విశేష	-9.91651
స్సు	-9.91947
▁ప్రాజెక్ట	-9.91998
▁భవన	-9.92025
▁శా	-9.92115
ేవారు	-9.92186
గారి	-9.92218
ాచల్	-9.92234
మన	-9.92274
పోయారు	-9.92496
ౌన్	-9.92597
▁విజ	-9.92647
▁గౌ	-9.92663
▁పుట్ట	-9.92665
▁బాబ	-9.92721
▁వేశా	-9.92727
ాల్సిందే	-9.92728
▁జమ్మూకశ్మీర	-9.92834
▁ఫామ	-9.9286
▁చేత	-9.92862
▁పార్లమెంట	-9.92883
ొచ్చు	-9.92983
పోయింది	-9.93006
▁పరికరాల	-9.9303
మోహన్	-9.93034
బుల్	-9.93098
▁ఫర్	-9.93176
▁చేసుకునే	-9.93321
ంద్రా	-9.93461
ంటోంద	-9.93627
ల్లెల	-9.93669
సాహో	-9.93814
బాహుబలి	-9.93851
గోపాల	-9.93895
అర్జున	-9.93896
ఇండియా	-9.93912
రెండు	-9.93918
▁శుభ	-9.93933
జీవ	-9.93946
ఒక	-9.94023
▁భాగస్వామ	-9.94024
▁సెల్	-9.9412
తాన్	-9.94174
▁ఇష్టపడ	-9.94216
ౌత్	-9.94236
మాత్రం	-9.94287
▁బట్ట	-9.943
▁మిగిల	-9.94373
పడింద	-9.94378
▁భాగ	-9.94383
కప్	-9.94589
▁కుల	-9.94625
స్టర్	-9.94691
▁గొ	-9.9472
▁కల్పించాల	-9.94725
ట్రిక్	-9.94746
▁పామ	-9.94856
రాజా	-9.94879
ెయిన్	-9.94895
▁పెట్టిన	-9.94912
▁మొదలై	-9.94933
▁బయట	-9.94941
కూడదు	-9.94972
▁సముద్ర	-9.95035
స్కారం	-9.9505
▁వివాదాస్పద	-9.95056
▁ట్రేడ	-9.95087
▁గ్రంథ	-9.95094
▁కన్సాలిడేట	-9.95095
▁యునైటె	-9.95095
▁అనుకూలంగా	-9.95095
▁ఉల్లిపాయల	-9.95095
▁వినియోగించ	-9.95095
▁హరియాణా	-9.95095
ాభివృద్ధి	-9.95095
▁అనుమానాస్పద	-9.95095
▁ఉత్సాహం	-9.95095
▁ఎగుమతి	-9.95095
▁ఏటీఎంల	-9.95095
▁జన్మదిన	-9.95095
▁జరిమానా	-9.95095
▁జాగ్రత్త	-9.95095
▁టెర్మినల్	-9.95095
▁దంపతుల	-9.95095
▁ద్రవ్య	-9.95095
▁నాగచైతన్య	-9.95095
▁నోటిఫికేషన్	-9.95095
▁పనితీరు	-9.95095
▁పరిశోధన	-9.95095
▁పొదుపు	-9.95095
▁బలోపేతం	-9.95095
▁భానుమతి	-9.95095
▁మాదిరిగా	-9.95095
▁ముగింపు	-9.95095
▁ముహూర్త	-9.95095
▁రహస్య	-9.95095
▁విజ్ఞాన	-9.95095
▁వృత్తి	-9.95095
▁శీతాకాల	-9.95095
▁సంక్షోభ	-9.95095
▁సిఇఒ	-9.95095
▁సెక్యూరిటీ	-9.95095
▁సేకరణ	-9.95095
▁సౌతాఫ్రికా	-9.95095
▁ఏజెన్సీ	-9.95095
▁ఐదేళ్ల	-9.95095
▁ప్రతినిథి	-9.95095
▁ప్రతినిధి	-9.95095
▁శైలి	-9.95095
▁తరగతి	-9.95095
▁ప్లాంట్	-9.95095
▁విజృంభ	-9.95095
▁రెండింటి	-9.95095
▁లారెన్	-9.95095
డబ్ల్యూ	-9.95095
▁ఆర్టిస్ట్	-9.95095
▁థామస్	-9.95096
▁ఎయిడ్	-9.95096
▁నిఖిల	-9.95096
▁ప్రాతిని	-9.95096
▁నగదు	-9.95097
విరమణ	-9.95097
▁ప్రకృతి	-9.95097
ఫరెన్స	-9.95098
▁బలవంతం	-9.95098
▁అన్సారీ	-9.95098
▁దక్కింది	-9.95098
▁సమావేశమయ్యార	-9.95098
▁స్తుత	-9.95098
▁పవిత్ర	-9.95099
▁శశి	-9.95099
▁సిగ్నల	-9.95099
▁అదరగొట్ట	-9.951
▁వెంకయ్య	-9.95102
▁బ్లాక్	-9.95102
▁బీఎస్పీ	-9.95103
ాఖ్య	-9.95104
▁రామచంద్ర	-9.95105
▁సవరించ	-9.95105
▁సభ్యత్వం	-9.95107
▁రిటైర్మెం	-9.95111
▁హిందు	-9.95112
▁రాయబార	-9.95115
▁జోక్య	-9.95117
▁నంబర్	-9.95118
▁సుధీర	-9.95118
▁పదవుల	-9.95121
▁సమకూర్చ	-9.95126
యన్స	-9.95126
▁చాప	-9.95128
▁తనయుడ	-9.95131
▁సంబరాల	-9.95133
▁కార్య	-9.95136
▁ఆటగాడిగా	-9.95137
▁తొక్క	-9.95138
▁పత్రాల	-9.95138
న్మార్	-9.95143
▁హిమాచల	-9.95148
▁విమానాశ్రయంలో	-9.9515
▁రాజేంద్ర	-9.95158
▁కస్టమర్ల	-9.95159
▁శివసేన	-9.95164
▁చేసుకొ	-9.95164
▁ఎడిట	-9.95177
▁పాండే	-9.95179
▁వారసత్వ	-9.95189
్రాఫిక్	-9.95195
▁చైత	-9.95208
▁కళా	-9.95227
▁మెయిన్	-9.9523
▁ఇండస్ట్రీ	-9.95232
▁అరంగేట్రం	-9.95235
▁అలియా	-9.95252
▁చక్ర	-9.95252
▁త్రైమాసికానికి	-9.95256
▁ఫాస్ట	-9.95257
▁రాంచీ	-9.9526
▁ఒక్కసారి	-9.95263
తమైన	-9.95263
▁కపిల	-9.95276
▁తరపు	-9.95278
▁వెర్షన్	-9.95289
▁సిద్ధమయ్యా	-9.9529
▁అల్లుడు	-9.95292
దువ్వా	-9.95293
▁అవుట	-9.95295
▁ట్రాన్స	-9.95309
▁ఫ్యూ	-9.95331
▁బిఐ	-9.9535
▁జియో	-9.9535
▁బ్రహ్మ	-9.95354
▁ఎస్పీ	-9.95359
▁వ్యవహరించిన	-9.95378
▁స్థలం	-9.95385
▁ఇటు	-9.9541
▁పాండ్యా	-9.95442
▁గిరిజనుల	-9.95445
▁రక్షకుల	-9.95449
▁మైక్	-9.95452
▁సెంట్ర	-9.95458
▁మ్యూజి	-9.95465
▁మాయా	-9.95469
▁ధర్మ	-9.95477
▁బ్యాటరీ	-9.95479
▁తెచ్చి	-9.9549
▁మాఫీ	-9.95519
ానిక్	-9.95525
లెట్	-9.95536
▁రొ	-9.9554
రామారావు	-9.95624
▁రంజీ	-9.95651
▁రనౌ	-9.95678
▁అనుసంధానం	-9.95696
▁టైన్	-9.95705
బోతున్నాడ	-9.95729
▁గోడ	-9.95741
ిస్తున్నార	-9.95743
▁టిసి	-9.95744
▁ఇచ్చే	-9.9575
గలిగ	-9.95828
▁జిఐ	-9.95829
▁సెంటర్	-9.9588
▁ఘనత	-9.95899
▁కనిపించింది	-9.95909
▁సంతోషంగా	-9.95917
▁తమన్నా	-9.95918
▁పార్క	-9.95946
▁నబీ	-9.95959
నీయ	-9.95988
▁లక్ష్మీ	-9.95998
▁జీవన	-9.96004
వాహ	-9.96006
▁స్పీ	-9.96024
▁సంతృప్తి	-9.96024
▁పాలకుల	-9.96031
▁శ్రియ	-9.96032
▁రోల్	-9.96036
▁భాగం	-9.96144
ార్హ	-9.96148
ందు	-9.96185
డుతోంది	-9.96254
▁ఇవ	-9.96287
▁పోలీసు	-9.96303
ారో	-9.9632
▁కార్యక్రమం	-9.96328
ంబర	-9.96332
▁యువకుల	-9.96336
శాస్ర్తి	-9.96352
▁డో	-9.96371
▁నీరు	-9.96382
▁వివరించింది	-9.964
▁సెలవు	-9.96408
▁గుంట	-9.96461
▁సదుపాయాలు	-9.96497
జిక్	-9.96573
▁తరహాలో	-9.96583
▁అథ్లెట్	-9.96661
▁సమ్మ	-9.9668
మర్	-9.96746
▁తల్లిదండ్రులు	-9.96809
▁అవుతోంద	-9.96835
▁వైర	-9.96938
▁అల్లు	-9.9699
▁గట్టిగా	-9.97005
▁కోరుతున్న	-9.97071
▁వర్గం	-9.97072
▁విడుదలయ్యా	-9.97125
▁పథకాలు	-9.97129
▁నిలిచి	-9.97137
▁సోమ	-9.97198
▁తలపడను	-9.97304
ాక్షి	-9.97314
▁విత్	-9.97337
టికి	-9.97377
▁అదృష్ట	-9.97504
▁శేఖ	-9.97565
్కో	-9.97616
ిస్తుంది	-9.97674
▁వెళ్లిపోయ	-9.97727
▁శివాన	-9.97749
▁రాలేద	-9.97751
▁లావాదేవీల	-9.97805
▁థా	-9.97815
మీరు	-9.9787
▁భారతీయులు	-9.97937
▁ఎదురైన	-9.97949
▁నివేదికను	-9.97978
▁తెగ	-9.98047
▁హృ	-9.98047
▁స్వామి	-9.98103
మంత	-9.9812
▁గోల్డ	-9.98218
▁ఆధిక్యంలో	-9.98323
▁గుడ	-9.98373
▁తగ్గించ	-9.98381
▁రేప	-9.98412
▁పాప	-9.98427
▁వ్యాపారుల	-9.98466
▁మోర	-9.98558
▁కొల	-9.98596
టాన్	-9.98628
▁దావ	-9.9867
▁ఆడియ	-9.98753
ేటర్	-9.98792
▁విచారించ	-9.98807
▁ఉండేద	-9.98902
▁ఫీచర్ల	-9.99034
వాలా	-9.99039
ర్సన్	-9.99052
షర్	-9.99064
ద్రి	-9.99307
తున్నాయి	-9.9934
▁శ్రీకాంత	-9.99341
▁లేవు	-9.99365
▁పతకాల	-9.99385
▁కావాలన	-9.99475
▁వచ్చా	-9.99482
▁అందిస్తున్న	-9.99489
▁సగ	-9.99499
▁పేర్కొన్న	-9.99648
▁హోట	-9.99729
▁నిర్వహించాల	-9.99761
పర్	-9.99806
ెవర	-9.99816
▁సభ్యుడ	-9.99822
▁విమర్శ	-9.9984
తల	-9.99846
▁ఉద్	-10.0001
▁శరత	-10.0011
▁తేలింద	-10.0018
▁బీఐ	-10.0034
▁కథా	-10.0039
▁పరిస్థితుల్లో	-10.004
▁యువతి	-10.0057
మేం	-10.0058
▁గ్రామ	-10.0059
▁పాత	-10.0064
▁చెప్త	-10.0066
▁ధరించ	-10.007
▁చింత	-10.007
▁గెస్ట	-10.0073
▁చేయనుంద	-10.0074
▁ఇక్కడి	-10.0087
▁నల్లధనం	-10.0088
▁చేస్తున్నార	-10.0091
▁మాన	-10.0098
్రీ	-10.01
▁దూరంలో	-10.0101
▁గ్రే	-10.0117
▁పరీక్షించ	-10.0136
▁అయినప్పట	-10.0147
▁నష్టం	-10.0147
▁పార్టీలో	-10.0151
▁తమిళనాడులో	-10.0155
▁కనిపిస్తున్నాయ	-10.017
▁పట్టణ	-10.0172
▁విలీన	-10.018
▁సమాజం	-10.0196
▁ఒప్పంద	-10.0196
▁పుస్తకాల	-10.0206
దేవి	-10.0213
ుకుంటే	-10.0218
▁ఉన్నవార	-10.0227
లింగ	-10.0228
▁కేంద్రంలో	-10.0232
▁ప్రకటించడం	-10.0235
▁వెల్ల	-10.0235
ీద్	-10.0238
▁అమెరికన్	-10.0253
▁వెల్లడించిన	-10.0254
▁ఇండ	-10.0258
ేశ్వర్	-10.0277
▁చేస్తారు	-10.0277
▁ఎవరు	-10.0278
ంటర్	-10.0287
శాస్త్ర	-10.0291
▁గ్రేట	-10.0292
రాఫ్	-10.0292
▁డై	-10.0298
▁నల్లధన	-10.0311
న్నట్టు	-10.0315
రాట్	-10.0319
▁వాదనల	-10.0328
▁మల	-10.033
తుందన	-10.0337
▁కాం	-10.0342
తులు	-10.0345
లాగే	-10.0346
▁కూల	-10.0359
▁వివి	-10.0367
▁భూమి	-10.0368
▁పరిస్థితుల్లోన	-10.0381
▁స్మా	-10.0392
ద్య	-10.0393
▁వ్యాఖ్య	-10.04
▁నిరూపించ	-10.0403
▁ఉంచ	-10.0404
▁దక్కించుకున్న	-10.0407
▁పథక	-10.0408
తాయి	-10.0408
▁లలో	-10.0422
▁నిర్ణయించార	-10.0457
▁పాల్గొనే	-10.0459
▁తీసుకొస్తా	-10.0459
టాల	-10.0465
▁టెస్టుల	-10.0469
▁కనిపిస్తున్న	-10.0473
మాల	-10.0476
టీఆర్	-10.0483
▁తార	-10.0496
▁నాన్	-10.0503
▁సత్యం	-10.0504
▁మొత్త	-10.0515
▁కలిగ	-10.0526
వుతా	-10.0534
▁నెగ్గిన	-10.054
▁తీసుకుంట	-10.0545
▁సాధించాల	-10.0549
▁సహకార	-10.0563
▁వృ	-10.0565
ూల్	-10.0565
పోయిన	-10.0593
▁బాగు	-10.0606
▁టీలో	-10.0606
▁వహిస్త	-10.0612
రస	-10.0613
డేవి	-10.0618
రీనా	-10.0618
▁విధుల	-10.0621
ించడం	-10.0625
▁బాధిత	-10.0633
▁సలో	-10.0634
తోంది	-10.0636
▁ఫేమ	-10.0639
లియా	-10.0639
స్తారు	-10.064
▁య్య	-10.0645
▁స్టైల	-10.0651
▁తీసుకెళ్ల	-10.0654
షో	-10.0659
ేల్	-10.0663
▁వేడుకల	-10.0675
▁యుద్ధ	-10.0677
▁ఫ్ర	-10.0688
▁చేశాం	-10.0688
▁సున	-10.0693
▁బౌలర్ల	-10.0694
మయ	-10.0696
▁బ్ర	-10.0697
▁కీలకం	-10.0698
▁డబ్బు	-10.0699
▁నిందితుల	-10.0699
▁ఆకాశ	-10.0703
▁కోల్పోయ	-10.0705
▁పనిచేయ	-10.0715
దేవా	-10.0721
▁సామర్థ్య	-10.0727
ఫర్	-10.0738
▁తెలిసి	-10.0741
▁సర్కార	-10.0741
▁స్వదేశ	-10.0744
▁దర్శ	-10.075
రని	-10.0767
▁పాత్రకు	-10.0771
▁తెలియద	-10.0788
శంకర	-10.0789
ేయాలని	-10.0795
▁వస్తుందన	-10.0807
ింప	-10.0815
బాబు	-10.0818
చెన్నై	-10.082
▁తాగ	-10.0821
విక	-10.0826
రామ్	-10.0826
ఎక్స్	-10.0827
▁భవిష్యత్తు	-10.0831
▁వెల్లడి	-10.0835
▁మోడ	-10.0838
▁మొదలు	-10.0851
▁అక్క	-10.0854
▁నైపుణ్య	-10.086
▁అనుకో	-10.087
▁నిర్మాతల	-10.0874
▁ఇంజనీర	-10.0882
▁సాధించడం	-10.0889
▁నెట్	-10.0891
▁తాత్కాలిక	-10.0898
▁ఫంక్ష	-10.0898
▁తరలి	-10.0906
ాధికార	-10.0915
▁బ్యాక	-10.0916
ిక్కడ	-10.0921
▁కుప్పకూలి	-10.0921
▁వర్ష	-10.0923
▁షూట	-10.0925
▁ఏట	-10.093
ారిటీ	-10.0932
▁రిటై	-10.0933
▁బాహుబ	-10.0933
▁లభి	-10.0934
▁సంబంధి	-10.0936
▁కమ్యూని	-10.0938
▁అప్రమత్తం	-10.0938
▁ఆకర్షణ	-10.0938
▁ఆస్పత్రి	-10.0938
▁ఇండోనేసియా	-10.0938
▁ఉదాహరణ	-10.0938
▁ఐవోఏ	-10.0938
▁కంట్రోల్	-10.0938
▁కృతజ్ఞతలు	-10.0938
▁ఛాంబర్	-10.0938
▁జింబాబ్వే	-10.0938
▁ఢాకా	-10.0938
▁దీపావళి	-10.0938
▁పశువుల	-10.0938
▁పెళ్లాడ	-10.0938
▁ఫ్రాంచైజీ	-10.0938
▁బాక్సాఫీస	-10.0938
▁బాణసంచా	-10.0938
▁బ్రాహ్మణ	-10.0938
▁మహాసభల	-10.0938
▁మైలురాయి	-10.0938
▁లబ్ధి	-10.0938
▁వృద్ధుల	-10.0938
▁శరణార్థుల	-10.0938
▁సిస్టమ్	-10.0938
▁సెంటిమెంట్	-10.0938
▁సొంతగడ్డపై	-10.0938
▁స్ర్కిప్ట	-10.0938
▁అభివర్ణించ	-10.0938
▁ఎలక్ర్ట	-10.0938
▁కరెన్సీ	-10.0938
▁క్రాంతి	-10.0938
▁తూర్పు	-10.0938
▁నెలాఖరు	-10.0938
▁ఫిలిప్	-10.0938
▁ముమ్మరం	-10.0938
▁వ్యాజ్యం	-10.0938
▁సువర్ణ	-10.0938
▁స్ఫూర్తి	-10.0938
▁క్వాలిఫ	-10.0938
▁పురస్కరించుక	-10.0938
▁మెంటార్	-10.0938
▁ఆఫ్రికా	-10.0938
▁భావజాల	-10.0938
▁కనబర	-10.0938
▁ఫేవరెట్	-10.0938
▁మిమ్మల్	-10.0938
▁ఒరిజ	-10.0938
▁చైతన్య	-10.0938
▁ప్రియాంక	-10.0938
▁శివాజీ	-10.0938
▁జన్మించ	-10.0938
▁దానయ్య	-10.0938
▁టిబెట	-10.0938
▁వెంకయ్యనాయుడు	-10.0938
▁మాలిక్	-10.0938
▁పటిష్ట	-10.0938
▁స్టెప్	-10.0939
▁ఉస్మానియా	-10.0939
▁పరువు	-10.0939
▁దారుణమ	-10.0939
▁వర్గీకరణ	-10.0939
▁నినాద	-10.0939
▁సుల్తాన	-10.0939
▁మొదలుపెట్ట	-10.0939
▁వివరిస్త	-10.0939
▁మాట్లాడేట	-10.0939
▁నేపాల్	-10.0939
▁దైవ	-10.0939
▁టీచర్ల	-10.0939
▁కళాశాల	-10.0939
▁జాలర్ల	-10.0939
▁ప్రభు	-10.094
▁ప్రదాన	-10.094
▁రక్తం	-10.094
▁పొరుగు	-10.094
▁సీతారామ	-10.094
భి	-10.094
▁కొడుకు	-10.094
▁కలిగించే	-10.0941
▁ప్రేమకథ	-10.0941
ర్షిక	-10.0941
ంభన	-10.0941
▁పసిడి	-10.0941
మ్యాన్	-10.0941
▁అనురా	-10.0941
▁అనుమతించ	-10.0941
▁చెవుల	-10.0941
మేర	-10.0941
▁తరుణం	-10.0942
▁ట్రేడవుత	-10.0942
▁విశ్లేషకుల	-10.0943
▁ఉచిత	-10.0943
▁సాధన	-10.0943
▁ఎకరాల	-10.0944
▁వేటు	-10.0944
▁పాపుల	-10.0946
▁సంపద	-10.0946
▁అందజేయనున్న	-10.0946
▁పదేళ్ల	-10.0947
▁ఫ్రెండ్	-10.0948
▁ఏమిటంటే	-10.0948
వాళ్లు	-10.0948
▁నికోల	-10.0948
▁వైగో	-10.0948
▁మూడేళ్ళ	-10.0949
కాలిక	-10.0949
▁కామెంట్	-10.095
▁శ్రీనగర్	-10.095
▁సందర్శించ	-10.095
▁కానుక	-10.095
▁కప్ప	-10.0951
పద్ధ	-10.0953
▁తెలుసుకున్న	-10.0954
▁పీటర్	-10.0955
▁అధ్యక్షుడిగా	-10.0958
▁బహుజన	-10.0958
▁షాలిన	-10.0958
▁బీఎస్	-10.0959
▁క్యారెక్టర్	-10.0959
▁దినకర	-10.096
▁ఏడో	-10.096
▁లాథ	-10.0961
▁కోరుకున్న	-10.0961
▁కథానాయకుడ	-10.0961
ాంబర్	-10.0962
▁సుశీ	-10.0964
▁చేయండి	-10.0964
▁నగరాల్లో	-10.0964
▁మెజార	-10.0965
▁షీ	-10.0965
▁తేదీల్లో	-10.0966
▁చేయడమే	-10.0966
▁బలగాల	-10.0967
▁మొదటిసారి	-10.0967
▁గాయత్ర	-10.0969
డుగు	-10.0969
▁అడిగిన	-10.097
▁చల్ల	-10.0971
▁షరీ	-10.0971
▁ట్విన్	-10.0972
రక్త	-10.0973
▁రిజిస్టర	-10.0975
▁దాదా	-10.0976
▁ముస్త	-10.0978
▁పెట్టుకు	-10.0981
▁ఎంచుకున్న	-10.0983
▁లక్క	-10.0984
▁వంశీ	-10.0984
▁కొనసాగుతున్న	-10.0985
▁నెలకొంది	-10.0986
▁కలిశా	-10.0987
▁పదో	-10.0988
▁సతీ	-10.0989
▁అన్	-10.099
▁సగటు	-10.099
▁హారిక	-10.0993
▁సెలవులు	-10.0996
ాభిన	-10.0996
▁కాబోతున్న	-10.0997
▁ఆచార	-10.0999
ుకొనే	-10.1001
▁తనిఖీలు	-10.1001
▁జనం	-10.1002
▁సిటీ	-10.1003
▁నేటి	-10.1004
ోత్సవం	-10.1005
▁హెగ్డే	-10.1007
▁భువన	-10.1007
▁ఎస్సీ	-10.1007
▁మిత్రుల	-10.1008
హిర్	-10.1009
▁అటువంటి	-10.1011
▁సన్నిహితుల	-10.1014
▁శాం	-10.1015
▁సారథి	-10.1018
▁జోరు	-10.1018
▁కాంట్రాక్టు	-10.1019
▁నిన్న	-10.1021
▁ఓడి	-10.1021
▁అరుద	-10.1022
▁అధ్యక్షత	-10.1023
▁వాళ్ళ	-10.1024
▁భాగస్వాముల	-10.1026
▁అపో	-10.1026
▁ట్రై	-10.1028
నర్జీ	-10.1028
▁గుర్తించింది	-10.1029
▁గ్రాముల	-10.1032
▁కనిపిస్తారు	-10.1033
▁శ్రీరామ	-10.1033
▁కూర్చ	-10.1034
▁అంజ	-10.1035
▁ఖర్చు	-10.1036
▁చెయ్యడ	-10.1036
ోట్ల	-10.1036
▁పథకాల	-10.1041
▁అందుకుంటున్న	-10.1043
▁జరుగుతాయి	-10.1049
హార్	-10.105
▁క్యాంప	-10.1051
▁కనిపించిన	-10.1053
▁బహు	-10.1054
▁పడుతుంది	-10.1055
▁గీత	-10.1056
▁పరిజ్ఞానం	-10.1062
ట్యూ	-10.1064
▁వెళ్త	-10.1066
డాల్	-10.1066
▁బాధితుల	-10.107
▁బాలికల	-10.1073
▁చాలు	-10.1074
▁నమ్మక	-10.1085
▁వార్షిక	-10.1094
▁తీసుకోవడం	-10.1094
▁వెంకట్	-10.1097
చంద్ర	-10.11
▁వెళ్లే	-10.1102
కోసమే	-10.1104
ొన్న	-10.1107
▁బయటకు	-10.1108
▁బుల్	-10.1109
▁చెప్పే	-10.1114
▁మనీష	-10.1114
▁ల్యా	-10.1115
▁ప్రవేశపెట్టి	-10.1117
ర్డ	-10.1118
్రాన్	-10.1126
ియర్	-10.1127
▁బాలా	-10.1139
▁పనిచేస్తున్న	-10.1141
▁అల్	-10.1141
▁గెలిచిన	-10.1145
▁మాన్	-10.1146
▁కోవి	-10.1148
▁నిండి	-10.1148
▁రత్న	-10.1148
▁గమన	-10.115
▁ఉంటా	-10.1153
▁గాయ	-10.1154
▁అబ	-10.1156
▁ఇవ్వడం	-10.1161
నగరం	-10.1168
▁నక్షత్ర	-10.1175
▁గమనించ	-10.1175
▁నెం	-10.118
ినేని	-10.118
▁వివాదం	-10.1181
▁కవి	-10.1185
▁యాప్	-10.1185
▁త్వం	-10.1195
▁సర్వేలో	-10.1195
▁పుస్తకం	-10.12
▁ఎందుకంట	-10.121
జిటి	-10.1211
ఐఎ	-10.1213
ఖై	-10.1218
కపో	-10.1223
బోతున్నార	-10.1231
▁విక్రమ	-10.1234
▁కశ్మీరులో	-10.1234
▁ట్టు	-10.1239
ంచుకోవడం	-10.1251
▁నల్ల	-10.1252
▁భయం	-10.1252
▁పరీక్షల	-10.1259
▁గుర్తించి	-10.126
కెన్	-10.1261
▁రాణ	-10.1264
ద్దా	-10.1272
▁పరికరా	-10.1273
త్తం	-10.1278
స్పర	-10.1283
ొండ	-10.1304
▁యుక	-10.1305
▁గారి	-10.1307
▁సెప్టెంబర	-10.1311
▁అవుతున్న	-10.1312
▁ప్రమాణాల	-10.1313
ఎమ్	-10.1321
▁నవ	-10.1322
మం	-10.1325
▁ఎంఎం	-10.1326
▁చేశార	-10.1328
▁నిల	-10.1329
▁పాల్గొననున్నార	-10.1329
▁శివకుమార	-10.1338
▁పార్ట	-10.1346
▁ఆసక్తికర	-10.1349
▁చేసుకోవాలి	-10.1353
▁విషయంపై	-10.1358
▁ద్వ	-10.1371
▁ప్రదర్శించ	-10.1374
▁జుల	-10.1388
▁నంది	-10.1393
▁చేయవచ్చు	-10.1398
▁రెండేళ్లు	-10.1399
▁ప్రముఖుల	-10.1401
▁మార్క	-10.1406
▁గౌరవించ	-10.1411
▁పచ్చ	-10.1413
▁అందజేస	-10.1413
▁వేధించ	-10.1415
▁పెను	-10.1421
చుకున	-10.143
▁ఉంటారు	-10.1444
▁ధన్	-10.1446
▁రోడ్ల	-10.1446
ెయి	-10.1447
డుతూ	-10.1451
ోవడం	-10.1454
▁మేనేజర్	-10.1455
▁హామ	-10.1461
▁భారం	-10.1476
విడ	-10.148
▁ఇష్ట	-10.1497
▁అమర	-10.1498
▁కంగ	-10.15
▁భావించిన	-10.1511
్రాస్	-10.1516
▁మయ	-10.1518
▁షే	-10.1529
▁వీరిద్దరి	-10.1531
▁పండుగ	-10.1532
▁పుడు	-10.1544
▁హీరోలు	-10.1544
తిక్	-10.1544
▁వేసుకు	-10.1563
▁వున్న	-10.1566
▁కార్పొరేట్	-10.1574
▁కనిపిస్త	-10.1577
▁అప్	-10.1579
▁నౌ	-10.158
▁ఏర్పడింద	-10.1588
▁వాల్	-10.1614
▁తాక	-10.1637
▁వాహనాల	-10.1637
▁లాస్	-10.1663
▁తెచ్చిన	-10.1674
▁నవ్	-10.1701
మవుతుంద	-10.1751
మిట్ట	-10.1758
గంట	-10.1763
భ్	-10.1787
▁పోరాడి	-10.1787
▁చెబుతున్నా	-10.1795
సియా	-10.1796
చేసింది	-10.1804
▁నెలకొల్పి	-10.1806
▁సీబీ	-10.1807
▁సమీకరించ	-10.1816
▁అంచనాల	-10.1821
▁మనీ	-10.1828
▁స్వాగత	-10.1829
▁ఓవ	-10.1835
▁సిఫారసుల	-10.1836
▁దర్శకు	-10.1838
▁వాహన	-10.1839
▁విధించాల	-10.1846
▁జీత	-10.1846
▁చేసుకోవ	-10.1849
క్కి	-10.1854
▁అధ్యక్షు	-10.1871
▁నిర్వహిస్త	-10.1878
బార్	-10.1881
▁మార్గదర్శక	-10.1896
▁వ్యా	-10.19
▁ఫొటోల	-10.1924
▁తిరస్కరించార	-10.1934
చెం	-10.1936
▁త్రి	-10.1939
▁కదలిక	-10.1943
▁సూచన	-10.1943
▁సంత	-10.1944
▁కాక	-10.1952
క్వా	-10.1954
▁పాల్పడిన	-10.1962
▁పడిన	-10.1969
▁అకౌంట్	-10.1977
స్తుంది	-10.1979
▁సౌత	-10.1981
▁భార	-10.1987
ర్యం	-10.1992
▁పిల్	-10.2005
▁చెల్ల	-10.2006
▁స్క	-10.2009
▁లెవె	-10.2012
▁ప్ల	-10.202
కాలు	-10.2022
▁జరగనున్న	-10.2023
▁పొందిన	-10.2025
్యామ్	-10.2027
▁జరప	-10.2035
దాన్ని	-10.2044
▁తారల	-10.2056
వాయ	-10.2057
▁ప్రవేశ	-10.2061
▁కోర్టులో	-10.2063
▁ఆయనతో	-10.2099
ెళ్ళ	-10.2109
▁పెరగ	-10.2117
ేసిన	-10.2126
ుడిగా	-10.2135
▁స్నేహితు	-10.2145
▁పెట్టుకున్న	-10.2148
ష్టం	-10.2156
▁పడుతోంద	-10.2162
ంద్రన	-10.2168
▁వాజ	-10.2171
▁ఉంచుకున	-10.2176
డె	-10.218
▁నిలిపివే	-10.2191
▁చిత్రీకరించా	-10.2223
▁ప్రణ	-10.2235
▁చెప్తున్న	-10.2238
ోవ	-10.224
▁కుటుంబాల	-10.2244
▁బంద	-10.225
కోవడ	-10.2253
జన	-10.2257
▁కోప	-10.2258
▁హర్	-10.2267
్యాయ	-10.2289
▁కుమార	-10.2295
▁కొన	-10.2314
▁జిఎస్	-10.2315
▁సర్	-10.2319
▁సరిహద్దు	-10.2322
▁చెల్లించాల	-10.2322
శాఖ	-10.2341
ందన	-10.2345
మనం	-10.2347
ప్లె	-10.2347
▁వ్యూహ	-10.2349
▁తల్లిదండ్రుల	-10.2376
▁జవాన	-10.2386
▁వినిపిస్త	-10.2386
ుకుంటున్నార	-10.2395
ణంలో	-10.2397
▁ప్రవేశపెట్ట	-10.2398
మైనా	-10.2402
▁విశ్వవిద్యాలయ	-10.2406
▁అనుబంధం	-10.241
▁కార్	-10.2413
▁నిజమై	-10.2442
▁వెళ్ళే	-10.2447
▁మల్ల	-10.245
▁ప్రై	-10.2452
▁రూపొందుతు	-10.2462
▁టైమ	-10.2462
▁చర్చించ	-10.2465
▁చేయాల్సి	-10.2465
▁నార్	-10.2475
సప్తగిరి	-10.2477
▁స్థానాలు	-10.2477
▁శతక	-10.2479
సంతృప్తి	-10.248
▁కల్పించే	-10.2481
▁ఎదుర్కొ	-10.2483
▁ఏడాదిలో	-10.2483
సూర్య	-10.2484
హైదరాబాద	-10.2487
▁గర్భ	-10.2488
బిఎస్	-10.2488
▁మొద	-10.2489
పెద్ద	-10.2491
లిసి	-10.2491
▁ఎదుర్కొన	-10.2495
్యాట్	-10.2496
▁విక్రయ	-10.2504
▁పోరాడ	-10.2507
▁కవితల	-10.2508
▁ఫ్యా	-10.2511
పల్ల	-10.2514
▁మంత్రుల	-10.2515
▁సన్నిహిత	-10.2516
▁పరిగణ	-10.2516
మ్మద	-10.252
▁ఇంటెలిజ	-10.2523
▁రాక	-10.2529
▁ఆస్ట్రే	-10.253
ుంటాయి	-10.253
▁పరిశీలిస్త	-10.2534
▁విడుద	-10.2535
▁యాప	-10.254
కోటి	-10.2545
ఇది	-10.2546
▁ప్రతీ	-10.2553
▁దిశ	-10.2554
▁సూప	-10.2554
▁బాస	-10.2555
దళ	-10.2559
▁విశ్వ	-10.2567
▁విమర్శించార	-10.2584
▁అందజేయ	-10.2596
రితేజ	-10.2597
▁ఇద్దరి	-10.2598
▁మిచెల్	-10.26
్యూమ	-10.2601
▁నేపథ్య	-10.2602
▁అడగ	-10.2603
వేత్త	-10.2605
▁మాన్యుఫ్యాక్చర	-10.2605
నరసింహ	-10.2605
▁నెదర్లాండ్	-10.2605
▁సానుకూల	-10.2605
పరిశుభ్ర	-10.2605
విద్వేష	-10.2605
▁అతిథులు	-10.2605
▁అనుమతుల	-10.2605
▁అరేబియా	-10.2605
▁ఇళయరాజా	-10.2605
▁ఈక్విటీ	-10.2605
▁ఉపయోగపడే	-10.2605
▁కమర్షియల్	-10.2605
▁కరాటే	-10.2605
▁కలుగుతుంద	-10.2605
▁కిలోమీటర్ల	-10.2605
▁కుంభకోణం	-10.2605
▁కొనుగోళ్ల	-10.2605
▁ఘర్షణ	-10.2605
▁చిరునామా	-10.2605
▁తాగుబోతు	-10.2605
▁దుయ్యబట్ట	-10.2605
▁దూసుకుపో	-10.2605
▁నరేంద్రమోదీ	-10.2605
▁నిర్ధారించ	-10.2605
▁నెటిజన్ల	-10.2605
▁పారితోషికం	-10.2605
▁ప్రజాస్వామ్య	-10.2605
▁ప్రత్యామ్నాయ	-10.2605
▁ప్రొడ్యూస	-10.2605
▁బ్యూరో	-10.2605
▁భోజన	-10.2605
▁భోపాల్	-10.2605
▁యంత్రాంగం	-10.2605
▁రుత్విక	-10.2605
▁విద్యార్ధుల	-10.2605
▁వేరియంట్	-10.2605
▁వ్యవధిలో	-10.2605
▁శ్రీవిష్ణు	-10.2605
▁సంక్రాంతి	-10.2605
▁సహకరించ	-10.2605
▁సామూహిక	-10.2605
▁స్మృతి	-10.2605
▁హాస్పిటల్	-10.2605
▁హోరాహోరీ	-10.2605
▁ఈమెయిల్	-10.2605
▁కనెక్ట	-10.2605
▁టొయోటా	-10.2605
▁దూరమయ్య	-10.2605
▁మారడోనా	-10.2605
▁షర్మిల	-10.2605
▁స్కూటర్	-10.2605
▁స్పష్టత	-10.2605
▁హెచ్చరికల	-10.2605
▁కుర్చీ	-10.2605
▁తిరుగులే	-10.2605
▁తీర్మాన	-10.2605
▁దుకాణ	-10.2605
▁బహుమతుల	-10.2605
▁రాబడుల	-10.2605
▁రావాల్సిన	-10.2605
▁ఇవాళ	-10.2605
▁కంటైనర్ల	-10.2605
▁పరిసర	-10.2605
▁రాంబాబు	-10.2605
▁పదార్థాల	-10.2605
▁పరోక్ష	-10.2605
▁ఏకాభిప్రాయ	-10.2605
▁గ్లామర	-10.2605
▁జడ్జి	-10.2605
▁దుర్వినియోగ	-10.2605
▁ధీమా	-10.2605
▁అబ్బాస	-10.2605
▁కౌంటీ	-10.2605
▁సమగ్ర	-10.2605
▁ప్రతికూల	-10.2605
▁వింబుల్	-10.2605
▁చీకటి	-10.2605
▁ఊహించ	-10.2605
▁ప్రగతి	-10.2605
ొగ్గు	-10.2605
▁బదిలీ	-10.2605
▁ఫిలిం	-10.2605
▁కత్తి	-10.2605
▁వేణు	-10.2605
▁రిజర్వేషన్ల	-10.2605
▁శర్వా	-10.2605
▁ప్రసంగిస్త	-10.2605
▁నెలకొన్న	-10.2605
▁ప్లాన్	-10.2605
▁ఆప్ఘన	-10.2605
▁పిలుపునిచ్చ	-10.2605
▁ఆంక్షల	-10.2605
▁స్థిర	-10.2605
▁టుడే	-10.2605
▁కూతుర	-10.2605
▁నివసి	-10.2605
▁ఒక్కొక్క	-10.2605
▁నటీనటులు	-10.2605
▁నిలబడ	-10.2605
▁మెరుగుపర	-10.2606
▁పర్వ	-10.2606
శీల	-10.2606
▁ఉగాది	-10.2606
▁శిరీ	-10.2606
▁సతీమణి	-10.2606
▁సేవలందించ	-10.2606
▁డిజైన	-10.2606
▁పేపర్	-10.2606
▁సీపీఎం	-10.2606
▁ఆంగ్ల	-10.2606
▁బాలుర	-10.2607
▁విలన్	-10.2607
▁విగ్రహ	-10.2607
▁ఫెయి	-10.2607
▁స్టీవ	-10.2607
▁దళిత	-10.2607
▁గుప్త	-10.2608
▁ద్వయం	-10.2608
▁రోబో	-10.2608
▁లీడర్	-10.2608
దక్క	-10.2609
▁గురువు	-10.2609
▁నిర్మల	-10.2609
▁చేరువ	-10.2609
▁ప్రజాపతి	-10.2609
రీత్యా	-10.2609
▁ఆత్మీయ	-10.2609
▁పరిష	-10.2609
▁హాజరుకా	-10.261
▁దర్శకనిర్మాత	-10.261
ఐపీ	-10.261
▁సర్వీస్	-10.261
▁అజేయ	-10.2611
మెక	-10.2611
▁సరిపో	-10.2611
▁విపక్ష	-10.2611
▁గుండె	-10.2612
▁కొచ్చి	-10.2612
▁మాంస	-10.2612
▁డిఫెండ	-10.2612
▁కేజీల	-10.2613
▁విశాఖ	-10.2613
▁వామప	-10.2613
▁డ్రై	-10.2613
▁తిప్ప	-10.2613
▁యూఎస్	-10.2614
ట్నుంచ	-10.2614
▁జరుపుతున్న	-10.2614
▁ట్రయల్	-10.2614
▁చూడండి	-10.2615
▁ప్రతిభ	-10.2616
▁నియమితులయ్య	-10.2617
▁ఆధారిత	-10.2617
▁పాకిస్	-10.2617
▁రిలేషన్	-10.2617
బడ్డ	-10.2619
▁బాలయ్య	-10.262
▁కాల్చ	-10.262
▁గడప	-10.262
▁అసిస్ట	-10.262
తంత్ర	-10.262
సాలీడు	-10.2621
▁రాశా	-10.2621
▁ఇందిరా	-10.2622
▁చ్చిన	-10.2625
▁రూపాయి	-10.2625
▁క్రీడాకారుల	-10.2625
▁గార్డుల	-10.2626
టీపీ	-10.2626
▁నిర్దేశించ	-10.2626
▁ఏమిట	-10.2626
▁క్షిపణి	-10.2626
▁గిరీ	-10.2627
హెబ్	-10.2627
▁అంటోంద	-10.2628
▁భంగ	-10.2629
▁కవుల	-10.2632
▁క్షీణించ	-10.2632
▁ఉంటూ	-10.2632
▁జీవో	-10.2634
▁యావ	-10.2634
జర్నలిస్టు	-10.2634
▁హయాంలో	-10.2635
▁సమావేశాల్లో	-10.2637
▁ఏఎన్	-10.2637
▁గడ్డపై	-10.2637
▁మారిపోయ	-10.2637
▁ప్రచురించ	-10.2639
▁శక్తి	-10.264
▁గోదావరి	-10.264
▁దేవిశ్రీ	-10.2641
▁బిడ్డ	-10.2641
▁శ్రేయ	-10.2641
▁ఐఆర్	-10.2642
▁చెవి	-10.2642
▁జోష్	-10.2642
▁లెఫ్టా	-10.2642
▁సంపూర్ణ	-10.2642
▁పడ్డార	-10.2643
▁నిలుస్త	-10.2646
▁వాగ్	-10.2647
▁ఉద్దేశంతో	-10.2647
▁సిబి	-10.2648
▁మోప	-10.2648
▁బ్రూ	-10.2648
▁శతకంతో	-10.265
ుంటారు	-10.2652
▁సమన్ల	-10.2653
▁అంతటి	-10.2653
▁వేసవిలో	-10.2654
▁నీళ్ల	-10.2654
కాలంలో	-10.2655
▁మిషన్	-10.2656
▁ఎస్టీ	-10.2656
▁మర్యాద	-10.2657
▁నోటీసు	-10.2658
ానన్నారు	-10.2659
▁తాప్	-10.266
▁నాయకత్వం	-10.266
▁ఆదుకున్న	-10.2661
▁చొ	-10.2661
▁రహదారి	-10.2663
▁తెచ్చుకున్న	-10.2664
▁ఆరుగురి	-10.2664
▁సాహస	-10.2664
డాయి	-10.2664
▁యూర	-10.2666
ఇన్	-10.2668
▁సిఎ	-10.2669
▁కుల్	-10.2674
▁జాత	-10.2676
▁గణ	-10.2676
▁శ్రేణి	-10.2677
▁భాగస్వామ్య	-10.2681
▁కల్పిస్తున్న	-10.2681
▁కోరిక	-10.2682
▁వైర్ల	-10.2685
▁సూట	-10.2685
నామీ	-10.2686
జరీ	-10.2687
▁జరగాల్సి	-10.2688
▁ప్రతిష్ఠ	-10.269
▁పోషించిన	-10.269
▁అధ్యక్షులు	-10.2697
▁రన్నర	-10.2698
▁బౌల్	-10.2703
▁తమ్మ	-10.2704
▁గురు	-10.2711
▁టెల్	-10.2711
▁ఆశ్రమం	-10.2713
▁లేబ	-10.2715
ంద్ర	-10.2718
▁సీడీ	-10.2721
▁కోరిన	-10.2722
▁సేల్	-10.2722
▁నిశ	-10.2722
ోగాన్	-10.2722
▁జీవించ	-10.2723
డ్రో	-10.2723
▁జోడించి	-10.2725
▁సిద్ధమవుతున్న	-10.2727
▁ప్రోత్సహించ	-10.273
శేష	-10.273
▁అథ	-10.2733
▁భవిష్యత్తులో	-10.2733
▁సప్తగిరి	-10.2734
▁సమం	-10.2737
▁గౌత	-10.2737
ప్పున	-10.2737
▁ఆలయ	-10.274
▁రాంద	-10.2744
▁బొ	-10.2747
▁అభిన	-10.2747
▁వ్యతిరేకత	-10.2756
▁వేర	-10.2756
▁అమీ	-10.2757
▁తక్కువగా	-10.276
జారా	-10.2761
▁మంత్రివర్గంలో	-10.2771
ముంద	-10.2778
▁సాహో	-10.2782
▁సిమ్	-10.2782
▁విద్యుత్	-10.2783
▁ఎల్ల	-10.2792
▁పనిచేస్త	-10.2794
న్నర	-10.2795
▁బోధ	-10.2797
▁ఆశలు	-10.2798
▁పైన	-10.2802
పూర్ణ	-10.2808
▁విశ్వవిద్యాలయం	-10.2808
▁ఆశిస్తున్నా	-10.2812
ణీ	-10.2814
తార్	-10.2817
▁వినిపిస్తోంద	-10.2829
▁నెలల్లో	-10.2829
పోవడ	-10.283
▁ఉద్యోగం	-10.2836
▁కొడ	-10.2839
▁ఆకట్టుకున్న	-10.2846
▁కొంతమంద	-10.2851
▁రాజేశ్వర	-10.2851
▁దళం	-10.2858
▁కుశ	-10.286
▁వీల్	-10.2864
▁ఆస్కార	-10.2868
▁వయసులో	-10.2873
▁వేగ	-10.2876
▁సందేహాల	-10.2877
▁రూపం	-10.2877
▁గుర్తించిన	-10.2888
ంటారు	-10.2888
▁పాలై	-10.2892
▁ఆరో	-10.2897
▁రాజ్యాంగం	-10.2899
▁జీవ	-10.29
▁ఖాయ	-10.2905
▁కనిపించడం	-10.2907
▁పిల్ల	-10.2907
▁నరే	-10.2909
▁పేదల	-10.2911
▁కోల్పోయి	-10.2912
▁టికెట్	-10.2914
▁ఉద్యోగి	-10.2917
▁డిస్	-10.2926
▁పోవ	-10.2934
▁చరిత్రలో	-10.2934
▁వంటివ	-10.2935
ారావు	-10.2938
▁సర్కారు	-10.2939
▁వ్యవహారం	-10.2948
▁హాన	-10.295
▁అదుపులో	-10.2952
గరాల	-10.2957
ఫాల్	-10.2962
▁టైగ	-10.2967
▁కళ్ల	-10.2975
▁ప్రో	-10.3007
▁ఒప్పందంలో	-10.301
లేన	-10.3018
▁వెళ్లడం	-10.3018
▁వర్గంలో	-10.3024
▁నిజం	-10.3025
▁కోటి	-10.3029
▁చేస్తుంట	-10.3032
▁సోన	-10.3035
▁కృత	-10.3036
మాండ	-10.3038
▁సర్వీసు	-10.3043
షియా	-10.3044
▁ఒకరి	-10.3052
▁ప్రజల్లో	-10.3057
▁డౌ	-10.3063
▁నగరాల	-10.3072
▁గడు	-10.3073
▁పర్యటించ	-10.3078
షనల	-10.308
ుకుంటాన	-10.3081
▁పతన	-10.3085
ఉం	-10.3095
▁విఫలమైంద	-10.3113
▁సంప్రదాయం	-10.3115
▁ఉపశ	-10.3116
▁వేద	-10.312
▁పున	-10.3122
▁ప్రమాద	-10.3124
▁అందించే	-10.3125
▁వేళ	-10.3126
▁ప్రేమలో	-10.3127
రుపు	-10.313
▁క్లాస	-10.3131
▁చూసిన	-10.3134
▁మార్గాల	-10.3137
క్కడ	-10.3138
▁అయ్యే	-10.3139
▁ధరించి	-10.3147
▁ఆండ	-10.3147
▁వేరు	-10.3149
▁రచన	-10.3168
▁సాఫ	-10.3169
▁పీయ	-10.3169
▁దశాబ్దాల	-10.3169
▁ఉండి	-10.317
▁పరిశ్రమలో	-10.3181
సాగ	-10.3193
▁రాషా్ట్రల	-10.3194
▁రైజ	-10.3205
▁హీరోయిన్లు	-10.321
▁బౌలర్లు	-10.3218
▁సంప	-10.3223
▁ప్రయత్న	-10.3225
▁అల్ల	-10.3227
▁పూల	-10.3228
మ్రా	-10.3255
▁తీసుకువచ్చ	-10.326
▁లంచ	-10.3261
▁అక్రమాల	-10.3279
▁ప్రేమించ	-10.3284
▁డైరెక్టర్ల	-10.3289
▁రూపొందుతో	-10.3298
లండ	-10.3305
▁నో	-10.3323
▁తిరస్కరించ	-10.3323
▁ఎత్త	-10.3338
▁క్రమ	-10.3347
లైజ	-10.3365
▁పడే	-10.3369
ించాయి	-10.3375
▁ఆర్థికంగా	-10.3379
▁సర	-10.3379
▁వందల	-10.3383
▁సెంచరీల	-10.3387
▁దిగ్గజాల	-10.3401
జయ	-10.3411
డిటి	-10.3421
▁సిద్ధమవుత	-10.3433
▁సరిత	-10.3442
్రాక్ట	-10.3447
▁పూర్తయింద	-10.3447
▁ఆరా	-10.3449
ందరిక	-10.3451
▁క్రీమ	-10.3454
సిడ	-10.3455
▁నటించే	-10.3465
లయ్య	-10.3478
▁తత్వ	-10.3487
▁నిబంధన	-10.3491
▁దిన	-10.3492
▁కోరుత	-10.3498
ానో	-10.3504
▁సుమ	-10.3531
▁చెప్పాల	-10.3536
సరికి	-10.3536
లేక	-10.3542
▁మరీ	-10.3544
బద్ధత	-10.3546
▁కన్స	-10.3561
జార్	-10.3561
▁ర్యాంకుల	-10.3579
▁తరం	-10.3594
▁ఫల	-10.3603
తున్న	-10.3608
ందున	-10.3614
▁త్రిపా	-10.3618
▁డ్ర	-10.3619
▁కట్	-10.3634
▁కట్టడ	-10.3655
▁సమావేశమై	-10.3661
▁చేసేవార	-10.3667
బోయ	-10.3674
▁ఫై	-10.3711
ేటి	-10.3712
ిపోయింద	-10.3716
▁ఎదురై	-10.3725
▁జవాన్ల	-10.3726
గడ	-10.3733
▁చేస్తున్నామ	-10.3744
▁స్టాం	-10.3747
ున్నార	-10.3753
ంబో	-10.3753
▁జవాన్	-10.3772
▁వాట	-10.3774
▁రెండ	-10.3775
▁పెట్టాల	-10.3797
హార	-10.3798
జిబి	-10.3807
▁వాస	-10.3814
పోతోంద	-10.3826
▁బెంగళూరులో	-10.3827
▁అభిప్రాయాల	-10.3831
▁ప్రభుత్వంపై	-10.3841
▁విర	-10.3842
▁పోయ	-10.3863
▁వివాద	-10.3868
ెహ్వా	-10.3875
▁పూర్తయి	-10.388
▁నష్టాల	-10.3903
▁రంగుల	-10.3905
▁మున	-10.3905
▁తేలి	-10.3931
▁బిలో	-10.3951
గుల్	-10.3961
వచ్చే	-10.3961
▁తాజ	-10.3963
▁మగ	-10.3972
▁బాధపడ	-10.398
▁కండ	-10.3983
▁లెక్క	-10.3998
▁వ్యతిరేకించ	-10.4001
▁శాస్త్రవేత్తల	-10.4005
▁ప్రయోజన	-10.4013
▁కోర్సు	-10.4013
▁అవార్డుల	-10.4018
▁పెట్టడ	-10.4022
ైడ్	-10.4044
▁చెప్పాన	-10.4055
▁సంతోష	-10.4057
▁దర్శకుల	-10.4065
ేశ్వర	-10.4074
▁లభించాయ	-10.4086
గురు	-10.4086
▁సహాయం	-10.4095
▁బీచ	-10.41
▁వ్యక్త	-10.412
▁లౌకికవాద	-10.4126
ించాడు	-10.4134
▁దర్శక	-10.4139
వెల్	-10.4146
▁ఆదాయ	-10.4159
▁విక్ర	-10.4181
ంటుంది	-10.4181
▁చూపు	-10.4185
▁జూ	-10.4188
▁సందర్భ	-10.4202
▁పాకిస్థానీ	-10.4209
▁రావడ	-10.421
▁రష	-10.4214
▁ప్రాధాన్యమ	-10.4215
▁ఎన్ని	-10.4218
▁ఆకుల	-10.4236
▁కలిస	-10.4237
పెన్	-10.4248
▁రైడ	-10.4256
▁ఎప్ప	-10.4264
మయ్యాయ	-10.4275
▁మంట	-10.428
▁సందేహ	-10.4282
▁ప్రాణ	-10.429
▁సంక్షేమ	-10.4307
▁బాంబ	-10.4325
▁ఈవీఎం	-10.4333
▁అనిపించ	-10.4343
▁కాంస్య	-10.4348
▁అథ్లెట	-10.435
▁హసన	-10.4353
▁మార్కెట	-10.4356
▁కల్యాణ	-10.4362
ాణా	-10.4362
▁గేమ	-10.4366
▁బార	-10.4369
వుతోంద	-10.4371
తెరకెక్కిస్తున్న	-10.4376
▁పోరాట	-10.4379
▁ఎక్స	-10.438
▁అవార్డ	-10.4385
▁టికెట్ల	-10.4386
▁పయన	-10.4404
▁సీఎ	-10.4408
▁గది	-10.441
▁సదుపాయాల	-10.4412
▁కల్పిస్త	-10.4414
▁ఆరాధ	-10.4421
▁బాలిక	-10.4426
ానికే	-10.4429
ృతి	-10.4436
▁వాతావరణ	-10.4438
▁భారతీయుడ	-10.4445
ినపుడ	-10.4446
గ్రీ	-10.4448
▁చెయ్య	-10.4448
▁జోడించ	-10.446
▁గీతా	-10.4462
▁నాయక	-10.4463
▁పోషిస్త	-10.4466
▁యాక్ట	-10.4471
▁మంత్రివర్గ	-10.4479
▁జరుపుత	-10.4479
లక్ష్మీ	-10.448
విశ్వనాథ	-10.4481
▁ఆక్రమి	-10.4481
రక్షణ	-10.4483
▁బృంద	-10.4483
▁రాజేశ్	-10.4488
▁అలరించ	-10.4493
న్నదే	-10.4509
ధవ్	-10.4511
▁ఇబ్బంది	-10.4514
▁ప్రశంసించ	-10.4515
ందువల్ల	-10.4515
▁ప్రభావ	-10.4523
▁అరెస్ట	-10.4528
▁ఉంచి	-10.4529
▁స్టేడియం	-10.4532
▁అనుకున్నా	-10.4534
▁గడిప	-10.4534
బిగ్	-10.4541
▁ఆలోచిస్త	-10.4544
మధ్య	-10.4547
▁జరుపుకుంట	-10.4547
▁సంపాదించ	-10.4548
▁పాండ్య	-10.4549
రిమ	-10.4558
▁మనిషి	-10.4562
▁గెలుపొంద	-10.4567
▁బరిలో	-10.4569
▁వంట	-10.4571
▁మిలియ	-10.4573
ించాలన	-10.4576
పక్ష	-10.4585
▁వెంకటేశ్వర	-10.4585
ీకరణ	-10.4585
▁మీన	-10.4591
▁ఫ్రెం	-10.4594
▁కస్టమ	-10.4594
▁పీవీ	-10.4598
నాట	-10.4602
కారులు	-10.4603
▁ఛాయ	-10.4604
హింగ్యా	-10.4604
▁యూని	-10.4604
▁ధ్రువ	-10.4604
▁రిజర్వ	-10.4605
▁చైర్	-10.4605
▁విభాగాల	-10.4605
▁ఛత	-10.4605
ొరేటర	-10.4605
▁ఆనకట్ట	-10.4605
▁క్యుఐ	-10.4605
▁గ్రహగతుల	-10.4605
▁ఛేదించి	-10.4605
▁టిక్కెట్ల	-10.4605
▁ధైర్య	-10.4605
కీరవాణి	-10.4605
ఛేంజ	-10.4605
▁అప్రూవల్	-10.4605
▁అబద్ధాల	-10.4605
▁ఊహాగానాల	-10.4605
▁ఐశ్వర్య	-10.4605
▁కందుకూర	-10.4605
▁కట్టుదిట్ట	-10.4605
▁క్యారక్టర్	-10.4605
▁చూద్దాం	-10.4605
▁జీడీపీ	-10.4605
▁టార్గెట్	-10.4605
▁టోక్యో	-10.4605
▁తీసుకెళ్ళ	-10.4605
▁ద్వైపాక్షిక	-10.4605
▁న్యాయమూర్తుల	-10.4605
▁పతంజలి	-10.4605
▁పెనాల్టీ	-10.4605
▁ప్రత్యర్థుల	-10.4605
▁ఫెస్టివల్	-10.4605
▁బళ్లారి	-10.4605
▁మరుసటి	-10.4605
▁రిచర్డ్	-10.4605
▁రైఫిల్	-10.4605
▁లేవనెత్త	-10.4605
▁విపరీత	-10.4605
▁వేధింపుల	-10.4605
▁శుభారంభ	-10.4605
▁సిఫార్సు	-10.4605
▁స్విచ్ఛాన	-10.4605
▁హాజరయ్యార	-10.4605
▁ఆకర్షించ	-10.4605
▁ఇనిస్టిట్యూ	-10.4605
▁ఐసీజే	-10.4605
▁డీఎస్సీ	-10.4605
▁నోకియా	-10.4605
▁పరిశోధక	-10.4605
▁ప్రియదర్శ	-10.4605
▁మలేసియా	-10.4605
▁ముసుగు	-10.4605
▁మృతదేహ	-10.4605
▁విప్లవ	-10.4605
▁విభిన్న	-10.4605
▁విస్తృత	-10.4605
▁సహచరుల	-10.4605
▁హోల్డర్	-10.4605
▁ఐరోపా	-10.4605
▁గద్దె	-10.4605
▁ఛత్తీ	-10.4605
▁టెలివిజ	-10.4605
▁తొందర	-10.4605
▁నిలువరించ	-10.4605
▁మాధ్యమాల	-10.4605
శ్చాత్	-10.4605
▁ఆటతీరు	-10.4605
▁ఆశ్చర్యపరుస్త	-10.4605
▁జర్మనీ	-10.4605
▁దాసరి	-10.4605
▁నేనెప్పుడ	-10.4605
▁మునిసిప	-10.4605
▁ప్రవర్తిస్త	-10.4605
▁బుకింగ్	-10.4605
▁మానసిక	-10.4605
▁రిసార్ట్	-10.4605
▁స్టిట్యూ	-10.4605
▁పొరపాటు	-10.4605
▁కాలేజీ	-10.4605
▁జావె	-10.4605
▁రాధిక	-10.4605
▁కేన్సర్	-10.4605
▁చవితి	-10.4605
▁ట్యాంపర	-10.4605
▁దూరమై	-10.4605
▁మునిగిపోయ	-10.4605
▁మోహిత	-10.4605
▁వెల్లడైంద	-10.4605
▁ఆచరించ	-10.4605
▁పెట్టుబడి	-10.4605
▁ఇన్నోవా	-10.4605
▁బావుంది	-10.4605
▁విడిచ	-10.4605
▁తాయిలాల	-10.4605
▁విరాళాల	-10.4605
▁నిందితుడ	-10.4605
▁పద్ధతుల	-10.4605
▁ఖమ్మం	-10.4605
▁దారుణం	-10.4605
▁ఫెర్	-10.4605
▁అకౌంటెంట్	-10.4605
▁సమర్పిస్త	-10.4605
▁జప్తు	-10.4605
ద్వితీయ	-10.4605
▁కుదిరింద	-10.4605
▁మార్టిన	-10.4605
▁క్రీడాకారిణ	-10.4605
▁సలహాదారు	-10.4605
▁స్పష్టమై	-10.4605
▁అభినందించా	-10.4605
▁గోవింద	-10.4605
▁దీపికా	-10.4605
▁అట్టడుగు	-10.4605
▁గోపీ	-10.4605
▁ప్రార్థన	-10.4605
▁ప్రాసెస	-10.4605
▁క్లినిక్	-10.4605
▁సారథ్యం	-10.4605
▁కడుపు	-10.4605
▁మినహా	-10.4606
▁సవాళ్ళ	-10.4606
▁ట్రావెల	-10.4606
▁కడప	-10.4606
▁డొల్ల	-10.4606
▁అనువాద	-10.4606
ేస్తున్నారు	-10.4606
▁పట్టుబడ	-10.4606
▁అయో	-10.4606
▁డ్రెస్	-10.4606
▁కుదర	-10.4606
▁లక్షలాది	-10.4606
▁కౌంటర్	-10.4606
▁టైటాన్	-10.4606
▁తలెత్తి	-10.4606
▁పీఎంజీ	-10.4606
▁ఏంజెల	-10.4606
▁చంద్రబాబు	-10.4606
▁ఖాళీ	-10.4606
ికంగా	-10.4607
▁అసాధారణ	-10.4607
▁థియేటర్లలో	-10.4607
▁సున్నిత	-10.4607
▁సురక్షిత	-10.4607
▁నెంబర్	-10.4607
ాగత	-10.4607
▁లక్షణాల	-10.4607
▁కర్ణ	-10.4607
▁ఎటిపి	-10.4607
▁తప్పుబట్ట	-10.4607
▁నిధి	-10.4607
▁చిత్రీకరించి	-10.4607
▁బిల్కి	-10.4607
▁విమర్శకుల	-10.4607
్లూరు	-10.4607
▁నడవ	-10.4607
▁నిల్వ	-10.4607
▁తొడ	-10.4607
▁ఉప్పల	-10.4608
దురై	-10.4608
▁కోలుకోవ	-10.4608
▁కొనసాగిస్తూ	-10.4608
▁రేఖ	-10.4608
▁నిరంతర	-10.4608
▁ఎదుట	-10.4608
▁విశిష్	-10.4608
▁సమాధానమిచ్చ	-10.4608
▁కథాంశ	-10.4609
హబూబ	-10.4609
ెంచర్	-10.4609
▁వివేక	-10.4609
▁వారిద్దర	-10.4609
▁వీక్షించ	-10.4609
▁ప్రతిష్టాత్మక	-10.4609
▁రమేశ	-10.4609
ాన్సీ	-10.4609
▁హరీశ	-10.4609
▁సురేఖ	-10.4609
▁స్వప్న	-10.461
▁గెలవ	-10.461
▁నెరవేర్చ	-10.461
▁ఎదురవుతున్నాయ	-10.461
▁ఉపసంహరించుకోవ	-10.4611
▁పెప్స	-10.4611
సంకలన	-10.4611
▁మురుగదా	-10.4612
▁టెక్న	-10.4612
▁కష్టపడి	-10.4612
▁అవంతి	-10.4612
్యూటీ	-10.4612
సెప్ట	-10.4613
డ్యూయ	-10.4613
▁సరదా	-10.4614
▁మదిలో	-10.4614
▁రాబడి	-10.4615
▁చురు	-10.4615
▁ఇస్తారు	-10.4616
▁నిర్వ	-10.4616
▁మురళీధర	-10.4616
▁సెన్సా	-10.4617
▁సరిహద్దుల్లో	-10.4618
▁పేయి	-10.4618
▁ప్రతిష్ట	-10.4618
▁గె	-10.4619
▁పిటిషనర్	-10.4619
▁డబ్ల్యు	-10.4621
▁ట్యా	-10.4621
▁చాంప	-10.4623
▁సుబ్బ	-10.4623
▁సిద్ధాంత	-10.4624
▁లైవ్	-10.4624
▁కెఎస్	-10.4626
▁ముక్త	-10.4627
▁ఇదివరక	-10.4627
▁క్యాప్	-10.4627
▁భుజ	-10.4628
కూడదన్న	-10.4628
▁అప్పటిక	-10.4628
▁ఖన్నా	-10.4629
▁ఇరానీ	-10.4629
▁మార్కెట్లలో	-10.4629
▁గోపి	-10.4629
రీలంక	-10.463
▁ప్రారంభించార	-10.463
▁పరిచయమవుతున్న	-10.4631
▁దబాం	-10.4632
రాఘవేంద్ర	-10.4633
▁బతిక	-10.4633
▁సెషన్	-10.4633
్రెడి	-10.4634
ేసుకు	-10.4635
▁చిరు	-10.4636
▁తయారవుతున్న	-10.4636
▁మౌన	-10.4636
▁అంతంత	-10.4636
▁తీస్తున్న	-10.4638
▁మతపర	-10.4639
▁షై	-10.4639
▁పేల్చ	-10.4639
▁ఆకట్టుకునే	-10.4641
▁చదువుకున్న	-10.4641
▁నటించనున్న	-10.4641
ాకుల	-10.4641
▁గెలుపొందింది	-10.4643
్యూచ	-10.4643
▁చార్జ	-10.4643
▁దోషుల	-10.4644
▁దుబ	-10.4644
▁సీపీ	-10.4648
▁ఇంట్రాడే	-10.4649
▁ముగిసే	-10.4649
▁నిస్తేజం	-10.4649
▁పథంలో	-10.4649
▁గడ్డ	-10.4649
▁అగర్	-10.4651
▁నిజాయితీ	-10.4651
▁ప్రమో	-10.4651
▁హార	-10.4652
▁వడ్డ	-10.4652
▁సీవీ	-10.4653
▁అడుగుపెట్టిన	-10.4653
త్కాల	-10.4654
సెంట్	-10.4655
▁విప్ప	-10.4657
▁ఉద్దేశించి	-10.4657
▁హెల్	-10.4658
▁మాట్లాడుతున్న	-10.4659
▁సహకారంతో	-10.466
▁జితేంద	-10.4661
ార్టర్	-10.4662
▁గులా	-10.4662
▁జరుపుకుంటున్న	-10.4662
ాచారి	-10.4663
▁ఫంక్షన్	-10.4663
▁ప్రిన్స	-10.4663
▁తాత్కాలికంగా	-10.4663
▁ఫుడ్	-10.4665
శ్వాస	-10.4669
▁ఇన్ఫ	-10.467
తన్య	-10.467
▁కోలా	-10.4672
సింది	-10.4674
▁ద్రోహ	-10.4678
▁పద్మావతి	-10.4678
▁రీతి	-10.4679
▁వేతనం	-10.4679
▁జంగ్	-10.4679
జీనా	-10.4683
▁హుకు	-10.4684
▁ఎవరిక	-10.4684
▁మద్ద	-10.4688
వర్మ	-10.4691
▁పరిశీలిస్తున్న	-10.4692
▁మిల్ల	-10.4693
▁వెళ్లిన	-10.4695
భద్ర	-10.4696
▁ప్రాచ	-10.4696
▁మొహ	-10.47
▁నిచ్చ	-10.47
నాల్డ్	-10.4703
▁శారద	-10.4707
▁ర్యాంకింగ్	-10.471
▁విషయమ	-10.4712
▁ప్రేమించి	-10.4714
▁మురుగ	-10.4715
మాధవ	-10.4715
▁ధవన	-10.4716
ోచన	-10.4717
▁సద	-10.4719
▁బేసి	-10.4719
▁చేసుకోవచ్చ	-10.472
▁పరిణ	-10.472
▁జరగలేద	-10.4721
ప్యం	-10.4721
▁తెలిసిన	-10.4725
కల్ప	-10.4725
▁జరగడం	-10.4726
▁పదోన్నతుల	-10.4726
▁అవకాశాలున్నాయ	-10.4727
ాళీ	-10.4727
▁పడవ	-10.4727
▁ఖాయమని	-10.4729
▁గుండ	-10.473
▁గార్డ	-10.4734
▁లిక్	-10.4734
▁మాధవ	-10.4735
▁అప	-10.4739
▁కళ	-10.474
▁నవీన	-10.4744
▁ఫ్యాన్స	-10.4744
▁సమర్థించ	-10.4744
▁సర్జ	-10.4747
▁సామ్	-10.4747
ాయితీ	-10.4747
▁పోటీలను	-10.4748
▁కవితా	-10.475
▁కష్టమ	-10.4751
▁కరువ	-10.4752
▁ఇష్టపడతా	-10.4753
▁హ్యాండ్	-10.4757
▁వేయాల	-10.476
▁సిద్ధమైంద	-10.4761
▁రేవ	-10.4768
▁భక్తి	-10.477
▁విధించే	-10.4772
▁వాతావరణం	-10.4775
▁మాట్	-10.4775
▁చూస్తారు	-10.4776
▁సంతోషం	-10.4776
ాడనే	-10.4787
భాయ	-10.4788
▁సుంక	-10.479
▁సంతోషి	-10.4793
▁మరొకరి	-10.4795
▁దీర్ఘకాల	-10.4796
▁రెడ్	-10.4797
▁లాగ	-10.4799
▁ప్రతా	-10.48
▁ఇళ్ల	-10.4803
▁పరుచ	-10.4805
స్పాన్స	-10.4807
▁కొనసాగిస్తున్న	-10.4807
ంటున్నాయ	-10.4812
▁నక్సలైట్ల	-10.4822
▁కామ్	-10.4826
▁ఎత్తి	-10.4828
లక్షణ	-10.4839
ేశాడ	-10.4849
ాంత్	-10.4852
▁సోమవారంనాడ	-10.4854
▁మౌళి	-10.4855
స్తులు	-10.4856
▁నిషేధించాల	-10.4858
▁బాటలో	-10.4859
▁కాంస్యం	-10.4868
▁మైనర్	-10.4869
▁కావాలంట	-10.4873
▁సిక్క	-10.4874
▁నెగ్గడం	-10.4895
శంస	-10.4901
▁అనుభవాల	-10.4902
దేనన	-10.4902
▁రమణ	-10.4904
▁పడ్డ	-10.4906
▁ప్రతిరోజ	-10.4906
▁సూచించిన	-10.4907
▁కాన్పూర	-10.4919
▁ప్రైజ	-10.4921
▁సమీక్షించ	-10.4923
▁వ్యూహం	-10.4926
▁కాలుష్యం	-10.4927
▁నొ	-10.4931
▁సన్నద్ధ	-10.4936
▁ప్రత్యేకత	-10.4942
▁తప్పులు	-10.4944
▁ప్రయోజనం	-10.4949
▁ఆదివాసీల	-10.4959
స్ట్రా	-10.4959
▁నిందితులు	-10.496
▁డబ్బుల	-10.4961
▁గాడి	-10.4963
▁నిన్ను	-10.4967
ార్జి	-10.497
ికినీ	-10.497
తృ	-10.4973
చేయకుండా	-10.4973
▁గుర్ర	-10.4979
▁మార్క్	-10.4981
▁డైల	-10.4986
▁ఉండద	-10.4987
▁స్వాగతించ	-10.4988
▁నిర్మించే	-10.4989
▁భాషా	-10.499
▁ఆస్ట	-10.4997
▁రియా	-10.4997
▁స్థానాలకు	-10.4998
స్త్	-10.4998
▁ఇందుక	-10.4999
▁చేసుకుంటున్నార	-10.5006
▁యుద్ధం	-10.501
▁పలక	-10.5012
▁ఏసియ	-10.5012
▁అంతర్	-10.5016
లీబా	-10.5028
▁నోట	-10.5028
▁ఇతరుల	-10.5029
▁విమానంలో	-10.5034
▁స్టైలి	-10.5036
▁ప్రకటనలు	-10.504
కేట్	-10.5048
▁వేయడం	-10.505
▁వెళ్ళిపో	-10.5053
▁జగ	-10.5056
▁లిస్టు	-10.5063
▁గడ	-10.5067
▁విఫలమైన	-10.5078
వాటి	-10.5084
ిస్తుందన	-10.5085
▁అట్ట	-10.5091
▁ఇళ్ళ	-10.5092
▁విచార	-10.5092
▁రావిప	-10.5103
ట్రాక్	-10.5109
▁వేర్	-10.511
▁మలయాళ	-10.512
▁పూర్తయ్యాయ	-10.5125
ీవీపీ	-10.5134
▁ముగియ	-10.5134
▁ప్రాజెక్టుల	-10.5142
▁పుస్తక	-10.5144
▁పోస	-10.515
▁పూర్వ	-10.5153
▁మెడ	-10.5154
▁జరగ	-10.5157
▁కారా	-10.5167
మాల్	-10.5176
▁మేరీ	-10.5189
ణయ్	-10.5194
ొద్ద	-10.5194
▁సంవత్సరాలు	-10.5201
▁ఇంజన్ల	-10.5206
▁బ్ల	-10.5217
▁బాగుంద	-10.5223
▁చర్చించిన	-10.5229
కంలో	-10.5229
▁మాట్లాడాన	-10.5234
▁చేయడ	-10.5235
▁శాస్త్రవేత్త	-10.5243
▁జల	-10.5244
జె	-10.5246
ెజ్	-10.5248
▁సీతా	-10.525
▁సంఘ్	-10.5252
మేనన	-10.5266
▁జాఫ	-10.5287
▁ఒక్కట	-10.5298
▁తలపడనున్న	-10.53
చుకోవడ	-10.5322
▁ఇంద్ర	-10.5324
▁కలక	-10.5327
ల్వీ	-10.5332
▁తీసుకొస్త	-10.5337
▁గృహ	-10.5343
▁ప్రారంభమైన	-10.535
వరక	-10.535
▁రాకపో	-10.5354
▁పొగ	-10.5367
▁సోష	-10.5398
ీకరించ	-10.54
▁ఉత్తర్వుల	-10.542
▁పాల్పడ	-10.5442
▁దండ	-10.5444
▁చేశారన్న	-10.5449
ెబి	-10.5451
▁సృష్టిస్త	-10.5452
▁వస్తువుల	-10.5459
▁పంచుకు	-10.5461
▁మహారాష్ట్రలో	-10.5464
▁కరెక్	-10.5473
ీనియ	-10.5481
ంజో	-10.5494
▁ఒక్కరి	-10.5506
సారీ	-10.5513
▁ఆత్మహత్యల	-10.552
▁ప్రతిపక్ష	-10.552
▁ప్రమాదాల	-10.5536
▁నౌక	-10.5537
▁పూర్త	-10.5541
▁చెల్లింపుల	-10.5562
▁పనిచేస	-10.5564
▁రుణం	-10.5564
పోతుందన	-10.5574
▁నిలిచార	-10.5594
▁గ్రామాల	-10.5595
▁రెండే	-10.5617
▁డిపాజిట్	-10.5639
▁ఎంపీల	-10.5649
▁ప్రకటిస్త	-10.5652
▁వ్యవస్థాపకు	-10.566
ఘాత	-10.5661
▁నిర్ణయానిక	-10.5665
క్రా	-10.5674
▁తరలించి	-10.5677
▁క్క	-10.5681
▁పుల్	-10.5681
▁మనోభావాలన	-10.5697
▁మ్యాట్	-10.5714
క్రమం	-10.5732
▁ఇర	-10.5745
▁పనిచేయడ	-10.5749
▁నటించడానిక	-10.5761
▁వెల్లువెత్త	-10.5763
▁అదృష్టం	-10.5778
▁అనుభవ	-10.5784
▁ఎలాగ	-10.5804
▁విలీనం	-10.581
స్టార్	-10.5815
▁కాయ	-10.5821
▁మేమ	-10.5823
▁పేట	-10.5823
▁తలపడ	-10.5859
▁తప్పలేద	-10.587
▁తప్పద	-10.5887
▁కాబ	-10.5918
▁చెప్పడం	-10.5941
వంతమైన	-10.5982
▁పోరాడిన	-10.6018
ిద్దర	-10.6018
▁చీలి	-10.602
▁టో	-10.6031
పడ్డా	-10.6042
జెట్	-10.6076
▁తొలగించాలన	-10.6086
ెక్షన్	-10.6095
▁పరిష్కరించాల	-10.6111
▁జరిగి	-10.6148
▁వాస్తవాల	-10.615
▁వెల్	-10.6161
▁ఉల్లంఘించ	-10.6172
దన్నారు	-10.6177
జార	-10.6178
రాస	-10.6178
గారిన	-10.6201
హాస	-10.6202
ెల్లంక	-10.621
ప్త	-10.6234
ూడి	-10.6237
▁ఆకట్టుకు	-10.6289
షమి	-10.6294
▁రచనల	-10.6314
▁షాట్	-10.632
▁వాటాల	-10.632
▁ఎదిగి	-10.6321
▁చేసుకున్నాడ	-10.6321
▁కాన్స	-10.6342
▁చేసినవారి	-10.6343
▁నడిచ	-10.6344
▁శత్రువు	-10.6361
▁పెరిగ	-10.6365
▁యన్	-10.6367
పరిచినట్ల	-10.6393
ర్ణిక	-10.6407
ఐఎస్ఎ	-10.6418
ొచ్చింద	-10.6461
▁చెబుతా	-10.6462
రాము	-10.6471
కపోవడ	-10.6495
▁అనుమాన	-10.6499
▁వీవీప	-10.6508
▁సంవ	-10.6516
▁ఓడిపో	-10.6521
▁పట్టుకున	-10.6526
▁తనదే	-10.654
▁పూర్తయ్య	-10.6549
▁కర్ణాటకలో	-10.6551
▁దీ	-10.6551
▁అభ	-10.6556
ార్ట్	-10.6558
చేసిన	-10.6559
▁అధ్యక్ష	-10.6599
▁చిత్రీకరిస్త	-10.6609
▁ఆహ్వాన	-10.6611
▁పిచ్	-10.6614
▁గంట	-10.6648
▁పాల్గొననున్న	-10.6657
ంచుకుంటున్న	-10.6668
నక్షత్రం	-10.6683
▁ఆదివాసీ	-10.6688
డుతు	-10.6691
రోజ	-10.6699
▁కనిపించే	-10.67
▁మంత్ర	-10.6702
▁కాలుష్య	-10.6706
▁ఏర్ప	-10.6708
ిల్లర	-10.671
టెన్	-10.6713
▁గెలుచుకు	-10.6721
శుద్ధ	-10.6728
చుర	-10.6746
▁రికార్డ	-10.6746
▁ఉగ్రవాదం	-10.6751
▁త్రైమాసిక	-10.6752
చేసే	-10.6761
వాళ్ల	-10.678
▁మరొకర	-10.6786
జెండ	-10.6787
▁తొలగ	-10.6787
గలనన	-10.6793
▁పరిచయమై	-10.6813
▁ఆశ్రయ	-10.6817
▁వెంకట	-10.6823
▁ఆకాంక్ష	-10.685
▁బౌలర్	-10.6852
చడం	-10.6854
▁నిర్మిస్త	-10.6866
లేకపోతున్న	-10.6875
▁చోట	-10.6884
▁ప్రకార	-10.6889
▁డివై	-10.689
▁టిమ	-10.6896
▁జరుగుతాయ	-10.6903
▁ఆగస్ట	-10.6906
▁పడుతుంద	-10.6913
▁జరుగుతుంద	-10.6917
▁కార్మిక	-10.6917
▁తెలుపు	-10.6928
▁దొరిక	-10.6928
▁ఇవ్వలే	-10.6933
▁పరిణామ	-10.6939
▁పోట	-10.694
చెల్లె	-10.6942
పోయాయి	-10.6946
▁నిశ్చ	-10.6948
▁పదోన్నత	-10.6954
ఒ	-10.6962
▁సీత	-10.6963
▁అమ్మాయిల	-10.6967
▁వ్యాపారాల	-10.6973
శారద	-10.6975
జవాన్	-10.6976
భాషా	-10.6977
▁నువ్వ	-10.6978
▁అనుసంధాన	-10.6978
హెగ్డే	-10.6979
భువన	-10.6979
మొత్త	-10.6979
▁ఫార్మాట్	-10.698
▁సాధిస్త	-10.698
ుకోవచ్చు	-10.6981
చమురు	-10.6981
లక్ష్మి	-10.6982
బెంగాల	-10.6983
ఢిల్లీ	-10.6986
భరత	-10.6987
రూపం	-10.6988
గాంధీ	-10.6988
▁విభాగ	-10.6988
పేరు	-10.6992
▁అర్థ	-10.6994
▁నిర్మాణాన	-10.7001
మార్చి	-10.7003
▁విక్రయాల	-10.7005
▁దక్కించు	-10.7009
మవుతోంద	-10.701
▁మంత్రివర్గం	-10.7011
▁వైప	-10.7011
కల్యాణ్	-10.7011
ాంశ	-10.7014
▁మిత్ర	-10.7018
సురే	-10.7023
ెరిట	-10.7028
▁గిరిజన	-10.7031
వోక	-10.7031
▁చాంపియ	-10.7032
లేకుండా	-10.7032
టికల్	-10.7032
▁ప్రదర్శిస్త	-10.7034
▁అనుకుంట	-10.7036
▁ఆశిస్తున్న	-10.7036
వార్త	-10.7048
▁లెఫ్ట	-10.7048
▁తేవాల	-10.7051
▁ప్రచురి	-10.7052
▁రాబట్ట	-10.7055
భాష్	-10.7058
స్థాయిలో	-10.7066
▁రోహ	-10.7067
▁ఇన్వెస్ట	-10.7079
▁ఆండ్ర	-10.7083
▁రుజువ	-10.7083
▁నియమితుల	-10.7086
▁నియంత్రించ	-10.7086
▁కావాల్సి	-10.7086
▁తీసుకురా	-10.7089
▁సాహిత	-10.709
▁పాల్గొంటా	-10.709
్విట్	-10.7091
లెక్టర్	-10.7092
రిగిన	-10.7093
▁హాజరు	-10.7095
▁ఉద్దేశం	-10.7095
▁అంబా	-10.7096
క్రియ	-10.7098
▁ఆస్వాదించ	-10.7098
▁తెల్ల	-10.71
▁సమాధానమ	-10.71
▁థియేటర్	-10.7102
▁అభినందన	-10.7103
▁దూసుకెళ	-10.7104
▁ఆధునిక	-10.7104
▁పిలుపు	-10.7104
రెసిడెంట్	-10.7104
▁ఒప్పుకో	-10.7105
నుభూతిని	-10.7105
▁ఎగబాకి	-10.7105
▁నిర్మూలించ	-10.7105
మహానుభావుడు	-10.7105
సుబ్రహ్మణ్యం	-10.7105
▁అత్యాధునిక	-10.7105
▁అమరనాథశాస్ర్తి	-10.7105
▁ఆధిప	-10.7105
▁ఇరువర్గాల	-10.7105
▁ఉత్సవ	-10.7105
▁ఉద్యోగస్తుల	-10.7105
▁ఎడ్యుకేషన	-10.7105
▁ఎన్డీటీవీ	-10.7105
▁ఎపిసోడ్	-10.7105
▁ఎలక్ట్రానిక్	-10.7105
▁కార్యదర్శుల	-10.7105
▁క్కించుకు	-10.7105
▁ఖుద్దుసి	-10.7105
▁గణాంకాల	-10.7105
▁చక్రవర్తి	-10.7105
▁చాణక్య	-10.7105
▁జగపతిబాబు	-10.7105
▁జయంత్యుత్సవాల	-10.7105
▁టోర్నమెంట్	-10.7105
▁డబ్ల్యూటీవో	-10.7105
▁డైరక్టర	-10.7105
▁దివ్యాంగు	-10.7105
▁దురదృష్టవశాత్త	-10.7105
▁నామినేషన్	-10.7105
▁నిర్వాహకుల	-10.7105
▁పరమేశ్వరన	-10.7105
▁పునర్వ్యవస్థీకర	-10.7105
▁ప్రీక్వార్టర్	-10.7105
▁ప్లిస్కోవా	-10.7105
▁భరద్వాజ	-10.7105
▁భూభాగంలో	-10.7105
▁మరుగుదొడ్డి	-10.7105
▁ముఖ్యమంత్రుల	-10.7105
▁యూఏఈ	-10.7105
▁వస్త్రధారణ	-10.7105
▁విస్తరణ	-10.7105
▁వీలవుతుంద	-10.7105
▁శాంతిభద్రతల	-10.7105
▁శిశువు	-10.7105
▁శైలజ	-10.7105
▁శ్రీకాకుళం	-10.7105
▁సంప్రదింపుల	-10.7105
▁సంస్కరణల	-10.7105
▁సాక్ష్యాధారాల	-10.7105
▁సిగ్గు	-10.7105
▁సీఓఏ	-10.7105
▁సుదీర్ఘ	-10.7105
▁హాజరై	-10.7105
▁హాస్యాస్ప	-10.7105
నిర్ధారణ	-10.7105
పెళ్లిచూపులు	-10.7105
ప్రతిపత్తి	-10.7105
ఫెక్ట్	-10.7105
▁ఆదాయపరిమిత	-10.7105
▁ఆభరణాల	-10.7105
▁ఆశ్చర్యపరిచ	-10.7105
▁కవేటర్ల	-10.7105
▁కాలపరిమితి	-10.7105
▁చక్కదిద్ద	-10.7105
▁తప్పించుకునే	-10.7105
▁తరగతుల	-10.7105
▁దుర్ఘటన	-10.7105
▁నిరుపేద	-10.7105
▁నౌకాదళ	-10.7105
▁పశ్చిమాసియా	-10.7105
▁బయల్దేర	-10.7105
▁బలహీన	-10.7105
▁బుద్ధ	-10.7105
▁బెల్జియం	-10.7105
▁మండిపడ్డ	-10.7105
▁మినహాయింపు	-10.7105
▁ముగిశా	-10.7105
▁సత్తాచాట	-10.7105
▁ఆత్రుత	-10.7105
▁ఒంటరి	-10.7105
▁క్రైస్తవ	-10.7105
▁గర్భవతి	-10.7105
▁చెప్పుకొచ్చ	-10.7105
▁చౌతాలా	-10.7105
▁పరిశీలన	-10.7105
▁వెచ్చించ	-10.7105
▁వేర్వేరు	-10.7105
▁షబానా	-10.7105
▁సౌందర్య	-10.7105
▁స్త్రీల	-10.7105
▁స్పష్టమవుత	-10.7105
▁ఆలస్యమై	-10.7105
▁దేవరకొండ	-10.7105
▁నిల్చున్న	-10.7105
▁రేకెత్తి	-10.7105
▁లెజెండ్	-10.7105
▁జన్మనిచ్చ	-10.7105
▁ప్రాతినిథ్య	-10.7105
▁మెషిన్	-10.7105
▁గొడవ	-10.7105
▁టెర్రర	-10.7105
▁తప్పుపట్ట	-10.7105
▁విడాకుల	-10.7105
▁ఉభయ	-10.7105
▁ఓబీసీ	-10.7105
▁కురిపించ	-10.7105
▁డైలాగ్	-10.7105
▁నివారించ	-10.7105
▁బీచుపల్లి	-10.7105
▁మూసివే	-10.7105
▁అద్దె	-10.7105
సి్ట్ర	-10.7105
స్థాపన	-10.7105
▁ఆదరణ	-10.7105
▁రెట్టింప	-10.7105
▁సౌమ్య	-10.7105
▁ఉద్వేగ	-10.7105
▁వెంబడి	-10.7105
▁కెనడా	-10.7105
▁పూర్తవుతుంద	-10.7105
▁మాథ్య	-10.7105
▁గురైన	-10.7105
▁పట్టుదల	-10.7105
▁వర్తకుల	-10.7105
▁ప్రెషన్	-10.7105
▁మూఢనమ్మకాల	-10.7105
▁వలసల	-10.7105
▁ఏడేళ్ళ	-10.7105
▁హ్యాపీ	-10.7105
▁కనబడ	-10.7105
▁ఇటలీ	-10.7105
▁అక్బర్	-10.7105
▁పట్టించుకోలేద	-10.7105
▁ప్రసంగం	-10.7105
▁త్యాగరా	-10.7105
▁సులభ	-10.7105
▁లవకుశ	-10.7105
▁విస్తరిస్త	-10.7105
▁అపీలు	-10.7105
▁సంచిక	-10.7105
▁సస్పెన్	-10.7105
ధిపతి	-10.7105
▁జైళ్ళలో	-10.7105
▁విశ్వాసం	-10.7105
▁జాలరి	-10.7105
▁బహుముఖ	-10.7105
▁ఆర్టిస్టు	-10.7105
▁ఎప్పుడెప్పుడ	-10.7105
▁రూలక్ష	-10.7105
▁అన్యాయం	-10.7105
▁క్వింట	-10.7105
▁తుపాక	-10.7105
▁పట్టించుకోవడం	-10.7105
▁లబ్ది	-10.7105
▁హిందూ	-10.7105
▁ఉత్పాదక	-10.7105
▁మీర్జా	-10.7105
▁స్వాతంత్య్ర	-10.7105
▁ఆశాభావ	-10.7105
▁గుప్పించ	-10.7105
▁శుక్ల	-10.7105
▁అంబే	-10.7105
▁నడుస్తోంది	-10.7105
▁అరుస్త	-10.7105
▁తులసి	-10.7105
▁అంచె	-10.7105
▁రిపబ్లిక	-10.7105
▁సానియా	-10.7105
▁యువకుడి	-10.7105
▁రెండేళ్ళ	-10.7105
▁పొడవ	-10.7105
▁సరికాద	-10.7105
▁సేకరించ	-10.7105
▁మల్టీ	-10.7106
▁దూసుకెళ్ల	-10.7106
▁చానల్	-10.7106
మురళ	-10.7106
▁ఇరువుర	-10.7106
▁పెద్దనోట్ల	-10.7106
▁ప్రార్థిస్త	-10.7106
షరతు	-10.7106
చాటింపు	-10.7106
▁ఎడమ	-10.7106
▁చేయరాద	-10.7106
▁ఎక్వి	-10.7106
త్విక్	-10.7106
▁క్షేత్ర	-10.7106
▁బెలార	-10.7106
▁మారిపోత	-10.7106
▁తెచ్చే	-10.7106
▁ప్రథమ	-10.7106
▁కోరుతున్నాం	-10.7106
▁రావల్	-10.7106
▁రోహింగ్యా	-10.7106
▁ముద్దాడ	-10.7106
▁రెజ్ల	-10.7106
▁షాహి	-10.7106
▁బయటపెట్ట	-10.7106
జుల	-10.7107
▁ప్రతిష్ఠాత్మక	-10.7107
▁సెలక్ట	-10.7107
▁స్తంభ	-10.7107
▁వస్త్రాల	-10.7107
▁చదువుతున్న	-10.7107
▁ప్రణీత	-10.7107
నొప్పి	-10.7107
▁పట్నా	-10.7107
▁పోటీపడ	-10.7107
భరిత	-10.7107
▁నాశన	-10.7107
▁పెరుగుతుందన	-10.7107
▁తలుపు	-10.7107
ావతి	-10.7107
▁చేసుకోగలన	-10.7107
▁అధికరణ	-10.7107
▁చూడాల్సిందే	-10.7107
▁ఐఐట	-10.7107
▁తగ్గుతాయ	-10.7107
▁సంతాప	-10.7107
▁దుర్గా	-10.7108
▁తెరకెక్కించాం	-10.7108
▁కలిప	-10.7108
▁రక్షించ	-10.7108
▁ఐక్య	-10.7108
▁మెరుగుపడ	-10.7108
▁పట్టించుకోన	-10.7108
▁అవతార	-10.7108
▁రిజిస్ట్ర	-10.7108
▁పెడుతున్న	-10.7108
▁మాధుర	-10.7108
▁స్కీమ	-10.7109
▁మెరుపు	-10.7109
▁గ్రహించ	-10.7109
▁సెక్ట	-10.7109
▁ఉస్మాన	-10.7109
▁మిలిట	-10.7109
▁నియమిస్త	-10.7109
▁తగిలి	-10.711
కబ్జా	-10.711
▁గెలల	-10.711
▁వెళుతున్న	-10.711
▁ఇంతవరక	-10.711
▁నిలదీ	-10.711
గమ్యం	-10.711
▁సంభవించ	-10.711
▁రాష్ర్టాల	-10.7111
▁పక్షపాతం	-10.7111
▁పండిత	-10.7111
▁దక్కడం	-10.7111
▁అనిశ్చిత	-10.7112
▁అడ్డంకుల	-10.7112
న్యాయవాదుల	-10.7112
▁ఉండటానిక	-10.7112
▁కూలిపోయ	-10.7112
▁భూపాల	-10.7113
▁మిచెల్లీ	-10.7113
▁భరించ	-10.7113
▁తరలించినట్లు	-10.7113
▁రూపొందిస్తో	-10.7113
▁వెన్ను	-10.7113
▁మూఢ	-10.7113
వరకట్నం	-10.7114
▁చిన్నతనం	-10.7114
▁షెల్	-10.7114
▁ఖాతాదారుల	-10.7115
▁శ్రీదేవి	-10.7115
▁పెరుగుతుండట	-10.7115
▁రియల్	-10.7115
బాటు	-10.7115
తిథి	-10.7115
▁రప్పించే	-10.7115
▁గోద్ర	-10.7116
▁మొండి	-10.7116
▁సంపుట	-10.7116
▁ఫీల	-10.7117
▁వెలుగులో	-10.7118
▁ప్రతుల	-10.7118
▁సముద్రంలో	-10.7118
▁ముంబా	-10.7118
▁బాల్యం	-10.7118
▁ప్యూ	-10.7119
క్కిరి	-10.7119
▁సాగుతుంది	-10.712
▁ముప్పు	-10.712
▁ఉనికి	-10.712
▁కెకె	-10.7121
పట్నం	-10.7122
▁రేణుక	-10.7122
▁ఇస్తామ	-10.7122
▁జేడీ	-10.7122
▁స్టడీ	-10.7124
ణమూ	-10.7124
▁వధించ	-10.7124
▁పనిచేశా	-10.7125
▁వంతు	-10.7126
▁ఒక్కర	-10.7126
▁ట్రైనింగ	-10.7126
▁నడుస్తున్నాయ	-10.7126
▁ఆసే్ట్రలియ	-10.7126
▁మార్పిడుల	-10.7126
▁చాగల్లు	-10.7126
▁పరిహారం	-10.7126
▁రుజువైంద	-10.7126
▁పౌరుల	-10.7127
▁విజయవాడ	-10.7127
▁ముద్ద	-10.7128
▁ఆర్థికమంత్రి	-10.7128
నప్పటి	-10.7128
ప్రియ	-10.7128
▁హోటళ్ల	-10.7128
▁శ్రీరంగ	-10.7128
సూద	-10.7128
▁గాయపడిన	-10.7129
▁తరిమ	-10.7129
▁విరిచ	-10.713
▁పొంగ	-10.713
▁రెండవ	-10.7131
స్థుల	-10.7131
▁ఎంతమంది	-10.7131
▁ఎంపి	-10.7132
▁గ్రి	-10.7132
▁నోరు	-10.7132
▁బలమైన	-10.7133
వెంకటేశ్	-10.7133
మవుతున్న	-10.7134
▁క్షమా	-10.7134
▁వెండి	-10.7136
▁పర్సన్	-10.7136
నికొస్త	-10.7136
ాలిడే	-10.7136
▁పెరుగుతోంద	-10.7137
▁సాధిస్తుంద	-10.7137
▁చదివే	-10.7137
తిరుమల	-10.7137
▁వక్తలు	-10.7139
▁తీర్పునిచ్చ	-10.7141
సాలీ	-10.7142
▁నెగ	-10.7143
▁ఎదుర్కో	-10.7144
▁కొనుగోళ్ళు	-10.7144
▁నిర్దోషుల	-10.7144
▁పేజీల	-10.7145
▁కోలుకు	-10.7146
▁పొందుతున్న	-10.7147
▁వేసుకున్నా	-10.7147
▁మాట్లాడటం	-10.7149
▁యావత్త	-10.7149
▁సుశ	-10.7149
▁పెరిగింద	-10.715
ట్టయిన	-10.7151
తువులు	-10.7151
▁మెరి	-10.7152
▁రెండూ	-10.7152
▁రీజి	-10.7153
▁అనువ	-10.7154
హేతు	-10.7156
▁చివ	-10.7157
కపోయిన	-10.7157
▁కథనాల	-10.7157
▁సాగుతున్న	-10.7157
▁భావిస్తున్నట్లు	-10.7158
▁మేధావుల	-10.7159
▁నిమిషాల్లో	-10.7159
రంగస్థలం	-10.716
▁ఫ్లా	-10.7161
▁చెయ్యాల	-10.7161
త్తర	-10.7161
ెనాల్	-10.7162
▁అబుదాబి	-10.7163
▁కళ్యాణ	-10.7163
▁క్లూజన్	-10.7163
▁మెట్రో	-10.7163
▁తగ్గడం	-10.7164
▁తీసుకురావ	-10.7164
▁స్పైస	-10.7165
ఘాట	-10.7166
▁తగ్గట్టు	-10.7166
▁యాగం	-10.7167
▁బతుక	-10.7167
▁మహేంద్ర	-10.7168
▁మెలాని	-10.7169
▁యాడ్	-10.7173
▁మెహ్ర	-10.7173
▁సాధ్యమైంద	-10.7173
▁స్వీకరించిన	-10.7176
▁బయటపడట	-10.7178
▁ఉన్నతాధికారుల	-10.7178
అలా	-10.7178
▁క్రీమీ	-10.7179
ీలైన	-10.7181
▁పెట్టుకోవ	-10.7187
▁కెప్టెన్సీ	-10.7187
▁జరగాల	-10.7188
▁నీట్	-10.7188
▁అబ్దుల్	-10.7189
▁కిడ్న	-10.7189
▁క్షణం	-10.719
▁యార్డ	-10.719
▁పక్ష	-10.7191
▁ఫసి	-10.7191
▁ఉపాధ్యాయుల	-10.7191
▁అనుమానిస్తున్న	-10.7192
▁రమ్మన	-10.7195
▁మఠ	-10.7195
▁పడుతున్న	-10.7195
▁జరుగుతుండ	-10.7197
▁దెబ్బతి	-10.7199
▁సాంబ	-10.72
▁ఎస్వీ	-10.72
▁గడిపే	-10.7201
▁లోపాలు	-10.7203
▁కేశవ	-10.7204
▁అనుకోలేద	-10.7205
▁ఆద్య	-10.7206
▁అవున	-10.7208
▁తొలగిపో	-10.7209
నాయుడు	-10.7209
▁ఇంజనీర్ల	-10.7209
▁మెరిసి	-10.7209
▁చర్చించార	-10.7209
ించేవార	-10.721
▁వజ్రాల	-10.721
▁పత్రం	-10.7211
▁డేటా	-10.7211
రోలి	-10.7213
▁బదులు	-10.7214
▁లాహ	-10.7215
▁అందిన	-10.7218
మలుపు	-10.7218
▁జానక	-10.7219
▁ప్రతీకార	-10.7222
▁నిమి	-10.7224
▁చాందీ	-10.7225
▁రాణిస్త	-10.7225
▁సిద్ద	-10.7227
తాప	-10.7233
▁లభించిన	-10.7233
కెంత	-10.7234
▁కల్పిస్తామన	-10.7236
▁దేవుడి	-10.7236
▁పెరు	-10.7237
▁బహ	-10.7237
▁శతకం	-10.7237
ంటాయ	-10.7239
▁హైదర	-10.7242
▁వ్యక్తిత్వం	-10.7249
▁నైపుణ్యాల	-10.725
▁పరాజయాల	-10.7251
▁వేగవంత	-10.7252
▁సంకేతాల	-10.7254
▁దుమా	-10.7258
అన్నదాత	-10.7259
▁ఉందన్న	-10.7261
▁ఇడి	-10.7263
▁ఆక్రమించ	-10.7264
▁మద్య	-10.7265
▁దోషి	-10.7266
▁కనిపిస్తుంద	-10.7266
గురువా	-10.7267
▁వర్తించద	-10.7268
నటులు	-10.7268
నయ్యా	-10.7268
▁నష్టపో	-10.7271
▁మార్గ	-10.7272
▁పోతున్న	-10.7272
▁తారాగణం	-10.7275
విరామం	-10.7276
▁ఐసిఎ	-10.7279
▁భావన	-10.728
▁ఆడమ్	-10.7283
▁సచివాలయం	-10.7283
▁పరిస్థితులపై	-10.7284
▁బౌట్	-10.7287
హాన్	-10.7288
మొళ	-10.7288
▁రామ్మోహన	-10.7288
▁మహీ	-10.7291
▁ఫార్మాట్ల	-10.7294
▁చెప్పినట్లు	-10.7297
▁జలాల	-10.7302
▁గాయకు	-10.7307
▁జాక్	-10.7307
▁మనిషిని	-10.7307
▁ఆసియాన్	-10.7309
▁సివి	-10.7311
▁నియామకం	-10.7311
▁పిఎ	-10.7311
▁తనకంట	-10.7312
మీడియ	-10.7314
▁నీర	-10.7316
▁మనసులు	-10.7317
▁పొలిట	-10.7318
సుందర	-10.7324
▁టెంప	-10.7324
▁శుభా	-10.7328
వైశాఖ	-10.7329
▁హోస్ట	-10.733
▁భావోద్వేగాల	-10.7338
ురియ	-10.734
రోజులు	-10.734
▁వచ్చేశా	-10.7343
లేయర్	-10.7347
▁ఆహ్వానిస్తున్నా	-10.7351
▁ఈసినిమా	-10.7352
▁ఉల్లంఘన	-10.7353
పూడి	-10.7355
▁కుండ	-10.7358
▁తీసుకోవచ్చు	-10.7369
వకాశాలు	-10.737
▁రాచ	-10.737
▁ఉన్నంత	-10.7379
▁టర్న	-10.7386
▁ఉండనుంద	-10.7387
ార్థం	-10.739
▁పారా	-10.7391
▁డ్డా	-10.7391
▁నామా	-10.7392
▁ఉండకూడద	-10.7396
దాద్	-10.7399
▁నిజా	-10.7403
▁దూక	-10.7413
▁ఆలోచనల	-10.7415
▁మంచిది	-10.7418
▁అయిపోయ	-10.7422
▁మూత్ర	-10.7423
▁అమితా	-10.7434
▁కంప్	-10.7438
వాల్సిందే	-10.7443
▁బెడ్	-10.7448
▁ఆకట్టుకుంట	-10.7449
▁చట్టబద్ధం	-10.7455
▁యాల	-10.7466
▁వేతనాల	-10.7469
▁చేస్తున్నాయి	-10.7469
▁జనాల	-10.747
▁తుమ	-10.7473
▁పాల్గొంటున్నార	-10.7477
▁ఇష్టమన	-10.7482
▁తరలించార	-10.7485
▁తీసుకునే	-10.7487
▁డెవ	-10.7487
▁డిక్	-10.7494
▁సంక్షేమం	-10.7501
▁కారణ	-10.7502
▁సందర్భం	-10.7503
▁గెలుచుకున్న	-10.7503
▁పరిపాలన	-10.7509
దిష్ట	-10.7512
ప్రభ	-10.7519
▁ఈమె	-10.752
▁క్రిష	-10.7532
రాధా	-10.7536
▁ఇవ్వలేద	-10.7537
▁పసి	-10.7538
▁ఎంచుకో	-10.7539
▁అడ్డుకున	-10.7539
▁కొనసాగుత	-10.7541
▁ఉండవచ్చు	-10.7542
▁సారా	-10.7546
▁గాయాల	-10.7547
క్కువ	-10.7548
▁ఎటి	-10.756
▁సరిహద్దులో	-10.7569
కాలా	-10.7569
▁ఆకాశం	-10.7571
ఆమ	-10.7573
డిపోయిన	-10.7578
▁వచ్చినట్లు	-10.7578
దిస్తున్నారు	-10.7591
▁బిఎస్	-10.7602
▁బుధవారంనాడ	-10.7611
క్కుతున్న	-10.7613
పట్టణం	-10.7634
▁నేరాల	-10.7659
▁డోక	-10.7663
డియో	-10.7665
▁మొన్న	-10.7666
▁స్వదేశం	-10.7674
▁గదిలో	-10.7677
ర్గే	-10.7683
▁ఆరంభం	-10.7688
▁కన్వ	-10.7693
▁స్కా	-10.7693
▁మాట్లాడిన	-10.7698
యితే	-10.7703
సరుకు	-10.7727
▁చిత్రీకరించార	-10.7735
తృత్వం	-10.7736
▁ప్రవేశం	-10.7736
▁గ్రామం	-10.7741
ాంతం	-10.7749
ాహార	-10.775
లౌకికవాదుల	-10.7754
▁తేదీన	-10.7756
▁సహకారం	-10.7768
హ్మ	-10.7794
▁అనుభవించ	-10.7801
నైజ	-10.781
▁వివాహాల	-10.7852
ఫిదా	-10.7854
శిక్	-10.7855
▁స్నేహితుల	-10.7869
▁చెక్కు	-10.789
▁శత్రువుల	-10.7908
▁విధించడం	-10.7916
▁పెరగడం	-10.7919
కోవా	-10.7934
▁మొర	-10.794
▁అభ్య	-10.7942
తలై	-10.7965
మెత్త	-10.7972
▁బోయ	-10.7976
▁లెక్కల	-10.7996
్మిన	-10.801
▁కనిపిస్తా	-10.8017
▁రఘురా	-10.8026
▁సజ	-10.8039
ోసిస్	-10.8055
▁బస	-10.8079
▁తెలియజేస్త	-10.8082
ేశాయి	-10.8083
▁కలప	-10.8101
▁జిఎస్ట	-10.8115
▁తెలుగువార	-10.813
▁బాబాయ	-10.8159
▁నిలవ	-10.8187
ధీర	-10.819
▁తీసుకుంటా	-10.8194
మిది	-10.8202
డీఏ	-10.821
▁బెయి	-10.8218
ఎంఎ	-10.8223
▁రెస్టారెంట్ల	-10.8225
▁నిర్వహిస్తుండ	-10.8226
▁ఉపయోగ	-10.8233
చేస్త	-10.8258
▁చెల్లిస్త	-10.8259
▁అందాల	-10.8261
చ్చే	-10.8264
▁రాయడ	-10.8277
ాలనుకున్న	-10.8292
రజా	-10.8294
నటుడ	-10.8317
▁పిన	-10.8318
▁దినేశ్	-10.8331
▁తెలుసుకున	-10.8332
▁గోయె	-10.8341
▁ప్రయోగాల	-10.8342
▁ఉపయోగిస్త	-10.8372
కేజీ	-10.8373
▁వెళ్లాల	-10.8377
▁శాండ	-10.8383
ందుకే	-10.8385
▁సవరణల	-10.8401
▁నటించడ	-10.8404
▁పెరి	-10.8407
▁సైన్స	-10.8408
పాత్ర	-10.8417
▁మించి	-10.8432
▁విమానాశ్రయాల	-10.8491
▁చేసుకోవడ	-10.8492
తున్నట్లు	-10.8511
▁అమెరికన్ల	-10.8532
▁కాంచ	-10.8544
▁వస్తున్నాయ	-10.8573
స్టాండ్	-10.8583
▁నవల	-10.8624
▁నిరోధించ	-10.8679
▁చేజిక్కించుకు	-10.8684
ఐఏ	-10.8692
▁పాకిస్థానీల	-10.8726
రవికి	-10.8727
▁విఫలమై	-10.876
రెబ	-10.8779
▁వ్యవస్థాపక	-10.8792
▁ఉంటాడ	-10.8792
▁ప్రకటిస్తా	-10.8803
కేఎల్	-10.8811
▁బ్యాలె	-10.8817
▁ఆశించ	-10.8838
్చారు	-10.8849
▁పరిశీలించిన	-10.8874
చుకొ	-10.8879
కానున్న	-10.8911
▁వ్యవహార	-10.8915
పక్షంలో	-10.8931
▁కార్యకర్త	-10.8937
మిత్ర	-10.8937
భావం	-10.8979
▁ఆత్మహత్య	-10.8986
▁సృష్టి	-10.902
▁సిఎల	-10.9029
▁చూడాలన	-10.9042
▁చాటుకున్నా	-10.9048
▁పండుగల	-10.9054
▁రెస్టారెంట్	-10.9061
▁వస్తువు	-10.9078
▁ఆర్డ	-10.908
▁చెప్పలే	-10.9087
నివ్వ	-10.9103
▁మంగళ	-10.9108
సిలోన	-10.9112
▁చేసుకోవాలంట	-10.9126
▁చెప్పేస	-10.9136
▁తీసుకువచ్చిన	-10.9161
ించవలసి	-10.9167
▁రూపొంది	-10.9172
▁మళ్లించ	-10.9194
▁రోగ	-10.922
ఐడీ	-10.9228
లసిన	-10.926
▁సర్క	-10.9268
▁ఇంగ్	-10.9275
ఎస్ఎస్	-10.9324
▁ఎత్తుకున	-10.9343
▁ఫఎ	-10.9345
ంటిక	-10.9348
▁నచ్చింద	-10.9381
ీర్ణ	-10.939
▁ప్రదర్శించి	-10.9397
▁వీసా	-10.9398
▁ఇమ్ర	-10.9409
▁బెయిల	-10.942
ఉపశమన	-10.9457
▁గుర్తించాల	-10.9464
▁తెలుసునన	-10.9486
▁ఇంజన్	-10.9491
▁పెట్టుక	-10.9493
▁ప్రతిపాదించ	-10.9494
▁అందజేసిన	-10.9518
▁ఘోరం	-10.9524
ౌత	-10.9534
దేశంలో	-10.9544
పోర్ట్	-10.9563
మాలిన	-10.958
జెంట	-10.958
సిఎ	-10.9584
▁మాతృ	-10.9607
▁పాల్పడ్డార	-10.9645
▁చోటుచేసుకు	-10.9649
రౌ	-10.9673
▁ఉపయోగించుకుంట	-10.969
▁అదుపు	-10.9721
▁పరిపాల	-10.9733
▁తప్పించుకో	-10.9738
▁పరాజయ	-10.9748
▁ఆదేశ	-10.9754
▁నేర్చుకు	-10.9766
▁అనుకున్నార	-10.9771
▁ఏర్పాటుచేసి	-10.9782
▁ఫ్ల	-10.9799
▁వేతన	-10.9838
▁లీల	-10.9842
▁పేద	-10.9849
▁గిర	-10.9864
▁కోడ	-10.9866
కరమైన	-10.9867
▁చేయగల	-10.9877
స్తున్నట్టు	-10.9883
▁పెరిగిపోతున్న	-10.9892
▁మొదలయ్య	-10.9894
▁అందజేస్తా	-10.9895
▁యత్న	-10.9897
గ్గి	-10.9909
▁సెలవ	-10.9923
▁పాల్గొంటు	-10.9942
▁మారుతున్న	-10.9955
▁సమర్థ	-10.9971
▁ప్రారంభిస్తున్న	-10.9975
▁కోస	-10.9985
▁చెక్క	-10.9987
▁ఆర్జించి	-11.0006
▁ఓపీ	-11.0019
▁పురస్కారాల	-11.0021
▁నివాస	-11.0026
▁థ్రిల్	-11.0052
▁పంట	-11.0058
గుండ	-11.0068
యోక్త	-11.0073
▁డేట	-11.0075
▁శాస్ర్త	-11.0078
▁ట్వి	-11.0093
▁సరిపెట్ట	-11.0097
▁భక్త	-11.0099
▁దీర్ఘకాలం	-11.0105
▁సౌకర్య	-11.0107
▁నేతృత్వం	-11.0107
ాగార	-11.0118
▁పరిజ్ఞాన	-11.0127
రుణా	-11.0132
స్ట్రక్	-11.0133
ాయుడు	-11.0138
ాస్తుల	-11.0142
▁సంపాదించుక	-11.0145
▁దోష	-11.0151
▁పోరాడార	-11.0152
▁కూర్చున	-11.0153
▁వెళ	-11.016
రజిత	-11.0161
▁రజత	-11.0176
బ్రిస్	-11.0177
▁అభ్యంతర	-11.0189
స్తాం	-11.0194
▁ప్రొడక్షన	-11.0194
▁సచివాలయ	-11.0195
▁మహేశ	-11.0196
▁టికె	-11.0204
▁తీసుకోవడ	-11.0206
▁ఆశ్రమ	-11.0206
స్థాయి	-11.0211
▁సెంటర్ల	-11.0212
చూరి	-11.0222
▁చేయవచ్చ	-11.0228
▁వ్యవహరిస్త	-11.0231
▁సంస్కృత	-11.0233
▁సారథ	-11.0236
ాణి	-11.0236
ఒక్కడ	-11.0245
▁మండల	-11.0249
పెళ్లిక	-11.025
▁పుంజుక	-11.0251
▁నిరుద్యోగ	-11.0255
▁మౌ	-11.026
▁తండ్ర	-11.0265
రిగే	-11.0267
▁ఆధిక్య	-11.0269
రోసా	-11.0273
▁అధ్యయన	-11.0274
▁అందిస్త	-11.0276
▁భయపడ	-11.0278
▁లక్ష్మ	-11.0291
ధికారిక	-11.0295
▁వజ్ర	-11.0296
▁చిర	-11.0301
▁నిర్మి	-11.0302
▁విధిస్త	-11.0303
కేశవ	-11.0305
పద్మావతి	-11.0308
మొహ	-11.0309
ద్రోహ	-11.0309
▁హీరోహీరోయిన్	-11.031
సభ్య	-11.0311
తెచ్చుకున్న	-11.0311
సాహస	-11.0311
పోరాట	-11.0311
సగటు	-11.0313
వేదిక	-11.0313
రౌండ్	-11.0313
అల్ల	-11.0314
మాఫీ	-11.0314
అమర	-11.0314
స్వచ్ఛ	-11.0314
▁స్టేడియ	-11.0316
బాలాజీ	-11.0316
వినాయక	-11.0316
సిద్ధ	-11.0317
తమిళంలో	-11.0318
రాష్ట్ర	-11.0318
హింస	-11.0318
చరిత్ర	-11.0318
వెంట	-11.0318
ఇండియన్	-11.0318
ప్రత్యేక	-11.032
ముంబై	-11.032
తెలుగు	-11.0321
హారిక	-11.0321
దేశానిక	-11.0321
త్తూరు	-11.0322
ొందిన	-11.0323
ఎన్టీఆర్	-11.0323
చిత్రం	-11.0324
రద్దు	-11.0324
మనసు	-11.0326
సభ్యులు	-11.0326
▁ఏంట	-11.0327
చాలా	-11.0327
చేయడంతో	-11.0328
▁రద్ద	-11.0332
చూప	-11.0333
బ్రిట	-11.0333
లేఖ	-11.0333
▁రక్షక	-11.0334
వారంలో	-11.0336
ినట్లయింద	-11.0341
శర్మ	-11.0341
▁ఒకడి	-11.0344
▁సుధా	-11.0345
▁చూడలే	-11.0347
▁నిరూపించుకున	-11.0347
కూడా	-11.0349
▁కొనసాగిం	-11.0351
కొట్ట	-11.0352
ఫై	-11.0352
▁ముగుస్త	-11.0353
పోటీ	-11.0358
ముఖ	-11.0359
▁విఫల	-11.0359
చౌ	-11.0364
▁ప్రేక్షక	-11.0366
▁జర్నలి	-11.0374
బౌట్	-11.0376
▁ముక్క	-11.038
▁తయారవుత	-11.0383
▁రాఘవ	-11.0388
▁వేసవి	-11.0391
రేం	-11.0395
▁రాంచ	-11.0401
▁వంశ	-11.0402
▁వాదించ	-11.0409
ల్యాణ్	-11.0411
టీసీ	-11.0412
▁నాణ్య	-11.0414
▁రేణు	-11.0415
▁క్రికె	-11.0416
జీపీ	-11.0417
▁మురళీ	-11.0418
▁కానున్నా	-11.0419
▁డిఫె	-11.0422
▁విశ్లేష	-11.0426
▁వివాదాస్ప	-11.0429
మిటంటే	-11.043
▁వేధిస్త	-11.043
▁సమకూర	-11.0431
▁పట్టించుక	-11.0432
ుణరత్న	-11.0433
▁ప్రోత్సాహ	-11.0434
▁ఎదురుచూ	-11.0434
▁పటిష్ఠ	-11.0435
▁కమిట	-11.0436
పూర్వకంగా	-11.0438
ూయిస్	-11.0438
▁భవిష్యత	-11.0438
▁మరచిపో	-11.0438
▁యోచిస్త	-11.0438
▁అధిగమిస్త	-11.0438
▁ప్రేరేపి	-11.0438
▁రూపుమాప	-11.0438
▁స్వాతంత్ర్య	-11.0438
ఎడప్పాడి	-11.0438
చిలసౌ	-11.0438
త్తేజాన్నిస్తుంద	-11.0438
భ్రాంత	-11.0438
శతాబ్ద	-11.0438
ోద్యోగ	-11.0438
▁అంతరిక్షంలో	-11.0438
▁అతిక్రమించ	-11.0438
▁అత్యవసర	-11.0438
▁అనుసరిస్త	-11.0438
▁అభ్యర్థన	-11.0438
▁అమృత	-11.0438
▁అర్చకుల	-11.0438
▁అస్వస్థత	-11.0438
▁ఆంజనేయ	-11.0438
▁ఆధ్యాత్మిక	-11.0438
▁ఇతివృత్తం	-11.0438
▁ఉపయోగపడుతుంద	-11.0438
▁ఉపరాష్ట్రపతి	-11.0438
▁ఉరిశిక్ష	-11.0438
▁ఊపందుక	-11.0438
▁ఎకనమిస్ట్	-11.0438
▁కనుగొన	-11.0438
▁కమెడియన	-11.0438
▁కర్మాగార	-11.0438
▁కానిస్టేబుల్	-11.0438
▁కార్యాచరణ	-11.0438
▁కుంబ్లే	-11.0438
▁కేటగిరీలో	-11.0438
▁కేటాయింపుల	-11.0438
▁కొనియాడ	-11.0438
▁క్యాంటీన్ల	-11.0438
▁ఖుషీ	-11.0438
▁ఖ్యాతి	-11.0438
▁గంభీర	-11.0438
▁గురవుతున్న	-11.0438
▁గూఢచారి	-11.0438
▁గైర్హాజర	-11.0438
▁చలనచిత్ర	-11.0438
▁చాన్స	-11.0438
▁జీవనభృతి	-11.0438
▁జ్యూరీ	-11.0438
▁టెక్నీషియన్	-11.0438
▁డాక్యుమెంట	-11.0438
▁డిపాజిటర	-11.0438
▁తప్పించుకున్నార	-11.0438
▁తిరుగుబాటు	-11.0438
▁తీయించ	-11.0438
▁తేలిపోయిందన	-11.0438
▁తేల్చిచెప్ప	-11.0438
▁తైపీ	-11.0438
▁దూరదృష్టి	-11.0438
▁దోపిడీ	-11.0438
▁దోహద	-11.0438
▁దోహదపడుతుంద	-11.0438
▁ధన్యవాదాలు	-11.0438
▁నజరానా	-11.0438
▁నటింపజే	-11.0438
▁నావికాదళ	-11.0438
▁నియమావళి	-11.0438
▁నిర్మూలన	-11.0438
▁నిర్లక్ష్యం	-11.0438
▁నివాళి	-11.0438
▁నివాళులర్పించ	-11.0438
▁నోయిడా	-11.0438
▁పారదర్శక	-11.0438
▁పాలకొల్లు	-11.0438
▁పురోగతి	-11.0438
▁పెంపొందించ	-11.0438
▁పెరుగుదల	-11.0438
▁పొడిగించ	-11.0438
▁పొయెమ్	-11.0438
▁పౌండ్ల	-11.0438
▁ప్రతిబింబించే	-11.0438
▁ప్రస్తావిస్త	-11.0438
▁మరుగుదొడ్ల	-11.0438
▁మల్హోత్ర	-11.0438
▁మహాకూటమి	-11.0438
▁మిజోరాం	-11.0438
▁ముచ్చట	-11.0438
▁మెర్సిడె	-11.0438
▁మైసూరు	-11.0438
▁మోసపూరిత	-11.0438
▁రెచ్చగొట్ట	-11.0438
▁లావణ్య	-11.0438
▁లింగంపల్లి	-11.0438
▁విద్యాబాలన	-11.0438
▁విధ్వంస	-11.0438
▁వినియోగిస్త	-11.0438
▁వియత్నాం	-11.0438
▁వెండితెర	-11.0438
▁వేర్పాటువాద	-11.0438
▁వైఫల్యం	-11.0438
▁శారీరక	-11.0438
▁శిఖా	-11.0438
▁శ్వేత	-11.0438
▁షెడ్యూళ్ల	-11.0438
▁సంతరించుకు	-11.0438
▁సంభాషణ	-11.0438
▁సభాధ్యక్ష	-11.0438
▁సమాధానాల	-11.0438
▁సాధువుల	-11.0438
▁సెమీకండక్టర్	-11.0438
▁సెమీఫైనల్	-11.0438
▁హర్షవర్థన	-11.0438
▁హెచ్చరించింద	-11.0438
▁అనర్హత	-11.0438
▁అబ్బాయిల	-11.0438
▁అసమానతల	-11.0438
▁ఆక్రమణల	-11.0438
▁ఉండబోతుంద	-11.0438
▁ఉపన్యాసాల	-11.0438
▁ఎలక్ట్రిక	-11.0438
▁ఏర్పాటై	-11.0438
▁ఐదేళ్ళ	-11.0438
▁కర్తవ్య	-11.0438
▁కొబ్బరి	-11.0438
▁గెలిపించ	-11.0438
▁చేజిక్కించుకో	-11.0438
▁ఛాయాగ్రాహకు	-11.0438
▁డిక్లేర్	-11.0438
▁తప్పించుకొన	-11.0438
▁తిప్పికొట్ట	-11.0438
▁దృష్టిసారించ	-11.0438
▁నక్సల్	-11.0438
▁పెట్రోల	-11.0438
▁పొలెనా	-11.0438
▁ప్రాముఖ్య	-11.0438
▁బలపరీక్ష	-11.0438
▁బాధాకరం	-11.0438
▁బ్లాస్టర్	-11.0438
▁మొట్టమొదటి	-11.0438
▁విద్యార్హతల	-11.0438
▁విభజన	-11.0438
▁శ్రేయస్కరం	-11.0438
▁సమన్వయ	-11.0438
▁స్థావరాల	-11.0438
▁స్వస్థలా	-11.0438
▁అవరోధ	-11.0438
▁ఆదేశాలివ్వ	-11.0438
▁కొన్నేళ్ల	-11.0438
▁గెలుచుకో	-11.0438
▁చేరువవుతున్న	-11.0438
▁జనార్దన	-11.0438
▁దక్షిణాసియా	-11.0438
▁నిష్క్రమించ	-11.0438
▁పెన్షనర్ల	-11.0438
▁ప్రతినిథుల	-11.0438
▁బహిష్కరించ	-11.0438
▁బ్రిడ్జ	-11.0438
▁భార్గవ	-11.0438
▁మోహరించ	-11.0438
▁రిఫరెన్సుల	-11.0438
▁వైదొలగ	-11.0438
▁షణ్ముగ	-11.0438
▁అసమ్మతి	-11.0438
▁కర్నూలు	-11.0438
▁పొన్నప్ప	-11.0438
▁మండపం	-11.0438
▁యజమాన	-11.0438
▁వర్ధమాన	-11.0438
▁గోదాము	-11.0438
▁చొరబాట్ల	-11.0438
▁తప్పుదోవ	-11.0438
▁దౌత్య	-11.0438
▁నామినేట	-11.0438
▁పెండ్లి	-11.0438
▁మున్సిప	-11.0438
▁రావాల్సింది	-11.0438
▁సస్పెండ	-11.0438
▁సిటిజన్	-11.0438
గ్రాహక	-11.0438
విఐపి	-11.0438
స్రవంతి	-11.0438
▁అర్పిత	-11.0438
▁ఉగంలక	-11.0438
▁తయారై	-11.0438
▁శిఖర	-11.0438
అనుసరించ	-11.0438
గానసభ	-11.0438
▁కాషాయ	-11.0438
▁నరసింహారెడ్డి	-11.0438
▁ప్లాజా	-11.0438
▁మూడింట	-11.0438
▁సమకూరుస్తున్న	-11.0438
ంకటరమణ	-11.0438
▁అనుకరించ	-11.0438
▁చుక్క	-11.0438
▁నేర్పించ	-11.0438
▁మితిమీర	-11.0438
▁కాకపోవచ్చ	-11.0438
▁ఆల్బమ్	-11.0438
▁పేలుళ్ల	-11.0438
▁ఇంజినీర	-11.0438
▁మొదలవ	-11.0438
▁ఏడేళ్ల	-11.0438
▁ప్రగ్యా	-11.0438
▁సుహాసిన	-11.0438
యచేసి	-11.0438
▁ఉద్యోగార్హుల	-11.0438
▁ఐఐఎం	-11.0438
▁వర్గీయుల	-11.0438
▁వెన్నెల	-11.0438
▁డెహ్ర	-11.0438
▁రోజువారీ	-11.0438
▁కలయిక	-11.0438
▁కొద్దిసేప	-11.0438
▁ర్యాలీల	-11.0438
▁చేద్దామన	-11.0438
▁గురయ్యా	-11.0438
▁నమూనా	-11.0438
▁పండగ	-11.0438
▁నడిపే	-11.0438
▁సవివర	-11.0438
▁అనిపించుకున్నాడ	-11.0438
▁గ్రంథాలయ	-11.0438
▁అలంకర	-11.0438
▁ఫ్యాక్టర	-11.0438
▁సింఘ	-11.0438
▁షిర్కే	-11.0438
▁అభిరుచ	-11.0438
▁పరిథి	-11.0438
▁విఫలమయ్యార	-11.0438
▁మద్దతిస్తున్న	-11.0438
▁కారుణ్య	-11.0438
▁సమష్టి	-11.0438
▁పేదరిక	-11.0438
▁రాశీ	-11.0438
▁విషాద	-11.0438
▁ఆధారపడ	-11.0438
▁ఆయుధాల	-11.0438
▁గాయపడ్డార	-11.0438
▁లివింగ్	-11.0438
దొక	-11.0439
▁బరువు	-11.0439
▁మందగ	-11.0439
▁హార్బర్ల	-11.0439
▁కాశీ	-11.0439
▁కురిపిస్త	-11.0439
▁జ్ఞాన	-11.0439
▁క్ష్మీ	-11.0439
▁బేనరు	-11.0439
▁ధ్రువీకరించ	-11.0439
▁అన్నదమ్ముల	-11.0439
▁తెప్పించ	-11.0439
▁రిజార్ట	-11.0439
▁ఎనిమిదేళ్ల	-11.0439
▁పనికిరా	-11.0439
▁గాసిప్	-11.0439
▁తాగునీ	-11.0439
▁పల్లె	-11.0439
తులైన	-11.0439
▁ఫార్మె	-11.0439
▁విసిర	-11.0439
▁అనుపమ	-11.0439
▁సింహా	-11.0439
▁యాజమాన్య	-11.0439
నటరాజన	-11.0439
▁అప్పీలు	-11.0439
▁స్నాచ	-11.0439
▁సైఫు	-11.0439
ర్టేషన్	-11.0439
ట్టిపడే	-11.0439
▁రమ్యకృష్ణ	-11.0439
▁సౌరాష్ట్ర	-11.0439
▁శాలువ	-11.0439
చ్చన్	-11.0439
▁అలరిస్తుందన	-11.0439
▁ప్రసంగించ	-11.0439
▁మూతపడ	-11.0439
▁దుస్తుల	-11.0439
▁కావొచ్చ	-11.0439
▁గర్వం	-11.0439
▁ఒకుహర	-11.0439
▁కట్రీనా	-11.0439
▁విట్నీ	-11.0439
▁సుఖీభవ	-11.0439
▁పుష్ప	-11.0439
బుగ్గ	-11.0439
విత్తనాల	-11.0439
▁మించిపోత	-11.0439
▁ఉండకపోవచ్చ	-11.0439
▁కల్పన	-11.0439
▁ఎదుర్కొంటోంద	-11.0439
▁శక్తిమంత	-11.0439
▁కుర్రాడ	-11.0439
▁ప్రోత్సాహకం	-11.0439
▁ఢీకొ	-11.044
▁బరాలా	-11.044
▁మెప్పించ	-11.044
▁యుగం	-11.044
▁లార్డ్	-11.044
▁మహాత్మా	-11.044
▁ఎదురుచూసే	-11.044
▁హనుమంతరావు	-11.044
▁మొదలుపెడతా	-11.044
థావరం	-11.044
▁భయపడుతున్నార	-11.044
▁అంగీ	-11.044
టమర	-11.044
ప్రెన్యూ	-11.044
▁రచించ	-11.044
▁టర్కీ	-11.044
▁తారకరామారావు	-11.044
▁అవతలివా	-11.044
▁ఆటోమేటి	-11.044
జెక్ట	-11.044
▁నాలుగేళ్ల	-11.044
▁సాకేత	-11.044
▁చిరకాల	-11.044
ర్వ్యూ	-11.044
▁నాన్నగార	-11.044
▁ఫిలిమ్	-11.044
▁నేరస్థు	-11.044
కొముర	-11.0441
▁ఎదురుచూస్తున్న	-11.0441
▁బకాయి	-11.0441
▁ఆడ్వాణీ	-11.0441
▁ఆరోపిస్తున్న	-11.0441
▁కుర్తా	-11.0441
▁హ్యు	-11.0441
▁పనికొస్తార	-11.0441
▁సుజాత	-11.0441
▁మంత్రిత్వశాఖ	-11.0441
▁అభినందనీయ	-11.0441
▁నిత్యావసర	-11.0441
▁కబాబ	-11.0441
▁రాబోతున్నాయి	-11.0441
▁స్కోర్	-11.0441
▁కారకుడ	-11.0442
▁వ్యాపారవేత్త	-11.0442
ఇంటికొక	-11.0442
▁ధర్మశాల	-11.0442
▁ఐడియా	-11.0442
▁శిక్షించాల	-11.0442
▁ప్రసవాల	-11.0442
▁కాంటాల	-11.0442
▁అనివార్య	-11.0442
▁కార్గో	-11.0442
▁బాధాకరమ	-11.0442
భరణి	-11.0442
▁తెరకెక్కిస్తార	-11.0442
ధీరుడు	-11.0442
▁తీసుకోవాల్సి	-11.0442
▁వేస్తూ	-11.0442
ిలిమ్	-11.0442
▁ఫాతిమ	-11.0442
▁పాల్పడటం	-11.0443
▁కామరాజ	-11.0443
▁టాంపర	-11.0443
చరిస్తున్నార	-11.0443
▁పుష్క	-11.0443
▁తిరుపతి	-11.0443
మృగ	-11.0443
▁ప్రజాతంత్ర	-11.0443
▁వర్థ	-11.0443
కోరి	-11.0443
▁స్క్వా	-11.0443
▁దిండు	-11.0444
▁చూపిస్తున్నాం	-11.0444
ుషుల	-11.0444
▁రకంగా	-11.0444
ిస్తాడు	-11.0444
▁గోపాలకృష్ణ	-11.0444
▁పోరాడుతున్న	-11.0444
▁మిథాలీసేన	-11.0444
▁తరలిస్తున్న	-11.0444
▁కాపాడుకున్న	-11.0444
▁ఇంధన	-11.0444
▁హేమ	-11.0444
▁పొత్తు	-11.0444
▁గుణరత్న	-11.0444
▁యాజమాన్యంలో	-11.0444
▁ధర్నా	-11.0444
▁చల్లార	-11.0445
▁కీలకపాత్ర	-11.0445
▁గార్డెన్	-11.0445
▁షాకిచ్చ	-11.0445
▁నానాటిక	-11.0445
ట్రాన్	-11.0445
▁ఎర్ర	-11.0445
▁గోప్య	-11.0445
▁పాల్పడుతున్న	-11.0445
▁తెల్లపా	-11.0446
▁చేయగలిగి	-11.0446
▁స్టీవెన్	-11.0446
▁కార్యాల	-11.0446
▁బాధపడుతున్న	-11.0446
▁వీటన్ని	-11.0446
▁ఇల్లు	-11.0446
▁సెలె	-11.0446
▁ఖనిజ	-11.0446
▁వినోదాత్మక	-11.0447
▁పోస్టు	-11.0447
▁సంపాదించుకున్న	-11.0447
▁అడగండి	-11.0447
▁డ్రైవర్	-11.0447
▁స్వామిజీ	-11.0447
▁రాకపోకల	-11.0447
▁లేనందు	-11.0447
▁వేధిస్తున్న	-11.0447
▁ప్రభావిత	-11.0447
▁యాదగిరి	-11.0447
▁రిటైర్డ	-11.0447
▁బిపిన	-11.0448
▁శివలింగ	-11.0448
▁ఉంటోంద	-11.0448
పదిహేన	-11.0448
▁చలామణీ	-11.0448
▁ఇస్తోంద	-11.0449
▁ప్రయాణిస్తున్న	-11.0449
ాయింట్	-11.0449
ుగుణ	-11.0449
▁పర్వతాల	-11.0449
▁మహీరా	-11.0449
రెక్కలు	-11.0449
▁అలరిస్త	-11.0449
▁రానివ్వ	-11.045
▁జెఎ	-11.045
▁ఏజెంట	-11.045
▁చెల్లించవలసి	-11.045
▁నిలబెట్టుకు	-11.045
▁ప్లాట	-11.045
▁ప్రారంభమవుతుంద	-11.0451
▁చొరబడ	-11.0451
▁చార్జీల	-11.0451
▁స్కై	-11.0451
▁చైనీ	-11.0451
▁నారాయణరావు	-11.0451
▁అభినందిస్త	-11.0452
▁వాట్స	-11.0452
యుధ	-11.0452
▁రామనాథ	-11.0452
▁డ్రగ్	-11.0452
▁కలిగించిందన	-11.0452
▁థాపా	-11.0452
జమ్మూ	-11.0453
▁పొందుతార	-11.0453
▁చూపించబోతున్న	-11.0453
▁చెరువ	-11.0453
▁బుల్లి	-11.0453
రిశ్ర	-11.0454
▁గదుల	-11.0454
▁ఎగ్మ	-11.0455
▁చేరవేస	-11.0455
▁లేకపోయిన	-11.0455
▁కిందపడ	-11.0455
▁ఆరోపి	-11.0455
▁స్ర్ట	-11.0456
▁చెప్పొచ్చు	-11.0456
▁శాంతి	-11.0456
దుకోవడం	-11.0456
▁ఏర్పడటం	-11.0456
▁బాలుడి	-11.0457
అకీరా	-11.0458
▁సెలెక్ట	-11.0458
▁అభ్యర్థిత్వ	-11.0458
▁ఇమామ	-11.0458
▁లీటర్	-11.0459
▁బాగో	-11.0459
▁తలెత్తుతున్నాయ	-11.0459
▁కోరుకుంటున్నార	-11.0459
▁సోధ	-11.0459
▁త్స	-11.046
▁కుదుర్చుకుంద	-11.046
▁చేదు	-11.046
▁బండార	-11.0461
▁వినలేద	-11.0461
▁లాంచ	-11.0461
▁విధేయ	-11.0461
▁ఆదుకున	-11.0462
▁చేపడుతున్న	-11.0462
▁నాణ్యత	-11.0462
▁మాతృమూర్త	-11.0462
అలసిపోయ	-11.0462
యాంటీ	-11.0463
▁చూపుతున్నార	-11.0463
ంటెంట్	-11.0463
▁కనిపించదు	-11.0464
▁విషమం	-11.0465
ాయతీ	-11.0465
▁మిళి	-11.0466
▁ఇరాన	-11.0466
▁చొర	-11.0466
▁ఖైదీ	-11.0466
▁సిరియా	-11.0466
▁చేయాలనుకుంట	-11.0466
▁దక్కిన	-11.0466
▁సరుకుల	-11.0467
▁అడ్వ	-11.0467
▁ప్రారంభమయ్య	-11.0468
సంభవ	-11.0468
▁స్కాట్	-11.0468
▁స్థలాల	-11.0469
▁కరుణా	-11.0469
▁సోదరి	-11.0469
▁కాళ్లు	-11.0469
▁లిపి	-11.0469
▁కళాకారుల	-11.047
▁రూపుదిద్దుకొ	-11.047
▁పీఎం	-11.047
▁హ్యాండ	-11.047
ర్భంగా	-11.0471
▁మధ్యవర్తిత్వ	-11.0471
▁చీరల	-11.0471
▁బెల్ట	-11.0472
ొహా	-11.0472
▁బాగుంటుంద	-11.0472
▁చూడలేదు	-11.0472
▁ఉపాయ	-11.0472
▁కాబోతోంద	-11.0472
▁గ్ల	-11.0472
▁చేయవలసి	-11.0473
గిలిం	-11.0473
▁కల్వ	-11.0473
▁మస్త్	-11.0473
▁ఆప్షన్	-11.0473
▁రాజేంద	-11.0474
▁వెంకటేశ్వర్ల	-11.0474
▁దేశమంత	-11.0474
▁సంపాదకుల	-11.0474
▁వందేళ్	-11.0475
▁తెలుస్త	-11.0475
▁చేయబో	-11.0476
డోర	-11.0478
▁క్రిస్టి	-11.0478
▁నీతి	-11.0478
▁ఎనర్జీ	-11.0478
▁హైకూ	-11.0478
▁ఇషా	-11.0479
▁శుభ్ర	-11.0479
▁ఫొ	-11.0479
▁పెంప	-11.048
▁ఏరియా	-11.048
టేశ్వర్	-11.0481
▁రూపుదిద్దుకుంట	-11.0481
హళే	-11.0481
▁ధరించడం	-11.0482
▁డివిజన్	-11.0484
▁వాదించిన	-11.0484
ామియా	-11.0484
▁నిషేధించ	-11.0484
▁ఇంజ	-11.0484
▁సీఈ	-11.0484
▁చేయటం	-11.0485
మినల్	-11.0485
▁తీసుకురావడం	-11.0485
▁వినతి	-11.0486
▁బయటపడ్డా	-11.0486
▁దాఖలయ్య	-11.0487
▁పార్థ	-11.0487
▁బలపర	-11.0488
▁ఆండ్రూ	-11.0488
▁తౌ	-11.0488
▁మాత్ర	-11.0489
రుణాన	-11.0489
▁పద్య	-11.0489
▁కాన్సుల	-11.049
▁ఆపరేట	-11.0491
▁మహిమ	-11.0492
▁కూర్చో	-11.0492
▁వారసు	-11.0493
▁తీస్త	-11.0493
▁యథ	-11.0494
▁విజువల	-11.0494
పొడిచ	-11.0496
▁అసహ	-11.0496
▁ఉత్తరాది	-11.0496
పీట	-11.0496
▁విపత్	-11.0497
ధాటి	-11.0497
▁ఆడుతున్న	-11.0498
▁బ్లూ	-11.0498
▁యాసి	-11.0501
▁అమర్చడ	-11.0501
▁రేగి	-11.0502
లవడం	-11.0503
▁రిఫ	-11.0503
▁రూపుదిద్దుకొంటు	-11.0503
స్వదేశ	-11.0506
▁యూకే	-11.0506
రసవ	-11.0508
▁లేరు	-11.0509
▁కావలసి	-11.0509
▁రఫా	-11.0511
ఏఐ	-11.0511
▁రెహ	-11.0513
▁బాధితుడిన	-11.0514
రప్పన	-11.0518
▁జాబ్	-11.052
▁కాలనీ	-11.0524
▁కార్యకలాపాల్లో	-11.0524
▁ముగుస్తుంద	-11.0525
▁గిల్	-11.0526
▁ఉష	-11.0527
▁ఎంచుకున	-11.0527
▁ఖాయమన	-11.0527
▁ముక్కలు	-11.0529
▁దేశాధ్యక్ష	-11.0529
▁వ్యవహరిస్తోంద	-11.0534
▁డ్రామా	-11.0535
▁తేర	-11.0537
▁చిన్నారుల	-11.0539
ిరిబ	-11.0541
▁నాకె	-11.0542
▁పేల	-11.0542
▁బీసీ	-11.0544
▁రిపోర్ట	-11.0545
▁ప్రాధాన్యత	-11.0547
▁నిమ్మ	-11.0547
▁పురా	-11.0551
▁ఓడిపోయింద	-11.0552
▁వ్యతిరేకించిన	-11.0552
▁గళ	-11.0553
▁జీవిస్తున్న	-11.0554
▁పెద	-11.056
▁నిరాశపర	-11.056
▁సుధాకర	-11.0561
▁ఉరి	-11.0562
ులందరితో	-11.0567
▁హీరోహీరోయిన్లు	-11.0567
▁పాండ	-11.0568
హస్త	-11.057
▁పోగొట్టుకున్నా	-11.0573
▁పదేళ్ళ	-11.0575
ుకోవాల్సి	-11.0576
▁కలిగించడం	-11.0577
▁థాంక్	-11.0579
జ్వీ	-11.0579
ందించడమ	-11.058
▁వాదిస్తున్న	-11.0582
ికేషన్	-11.0582
లిమి	-11.0587
▁మూడ్	-11.059
రెట్లు	-11.0593
▁భక్తుల	-11.0594
▁మరిచిపో	-11.0596
▁కామిన	-11.0597
▁గజ	-11.0597
▁నిలిపివేస	-11.0598
ఎవరై	-11.0602
▁ఇబ్బందికరమ	-11.0603
దమ్ము	-11.0603
ౌంట్	-11.061
▁చేతుల్లో	-11.0618
▁ముష	-11.0622
▁నిరుద్యోగుల	-11.0624
▁సాధికార	-11.0628
▁పొందుపర	-11.0628
ెయా	-11.063
▁రిజిస్	-11.0631
యెల్	-11.0633
▁పరిగణించ	-11.0634
ీజే	-11.0635
వ్రత	-11.0638
▁సైనికుడ	-11.064
దర్శనం	-11.064
▁ఉండటమ	-11.0644
్రపాలి	-11.0646
ేయండి	-11.0649
▁అలరించనున్న	-11.0652
▁నేర్చుకోవ	-11.0659
▁వదులుకోవ	-11.0659
రంభించిన	-11.0662
ిస్తుంటా	-11.067
▁పొట్ట	-11.0679
▁అవసరముంద	-11.068
వ్వడంతో	-11.0692
▁కలిగిస్తున్నాయ	-11.0692
▁య్యాన	-11.0694
▁చేరుకోవడ	-11.0696
▁బెంచ	-11.0697
గర్భిణ	-11.0698
▁అయ్యింద	-11.0702
▁ఒళ్ల	-11.0707
సిద్ధార్థ	-11.0709
▁బూన	-11.071
▁అనుభవిస్తున్న	-11.0713
▁బెంజ	-11.0722
▁కోట	-11.0726
జెన్స	-11.0727
▁కలుసుకున్నార	-11.0728
▁లుగుర	-11.073
త్యాగ	-11.0731
▁గడచి	-11.0735
▁అర్హుల	-11.0739
▁నమ్ముతున్నా	-11.0746
▁ఏర్పడుతుంద	-11.0747
▁కనిపించనున్నార	-11.0752
▁చెందుతోంద	-11.0756
▁నేర్చుకుంటున్నా	-11.0761
నిర్బంధంలో	-11.0762
▁డివైజ	-11.0766
▁మొదలుకాను	-11.077
▁పెరుగుతాయ	-11.0779
▁కప్పల	-11.078
▁సౌకర్యాల	-11.078
▁బుడ	-11.0792
▁వెల్లడిస్తా	-11.0795
▁ఆకాంక్షిస్త	-11.0803
▁కుదుర్చుకున్న	-11.0805
ినీడల	-11.0805
ర్గాన్	-11.0812
▁చిన్ననాట	-11.0816
నాగేశ్వరర	-11.0817
డకూడద	-11.0829
▁వ్యవహరించనున్న	-11.0838
ాంశాల	-11.0848
▁రాళ్ల	-11.0851
▁విధించవచ్చు	-11.0852
ఎక్కడికి	-11.0852
▁వెయ్య	-11.0859
▁అమలవుతున్న	-11.087
కెవై	-11.0872
దొడ్డి	-11.0875
▁ఆర్జించ	-11.09
▁ముస	-11.0903
▁ర్ష	-11.0904
▁కేటాయించాల	-11.0907
▁వర్షాల	-11.0908
గౌడ	-11.0918
▁అదృష్టమన	-11.0925
▁సుజ	-11.0926
చుకున్నార	-11.0948
▁తరాల	-11.0961
▁మేఘాల	-11.0964
▁స్టేజ	-11.0968
బేన	-11.0972
పోతున్నార	-11.0974
పెట్టుకున	-11.098
ివేస్త	-11.0992
▁సాగిస్తున్నా	-11.0994
▁ప్రభాకర	-11.1006
ొరబ	-11.1008
▁లిప్	-11.1012
▁అందజేస్తార	-11.1014
ోఫోర్	-11.1015
▁ఉంచారన	-11.1017
▁పంటల	-11.1023
▁బాదే	-11.1028
రిచాడ	-11.1029
ొక్క	-11.1031
▁ప్రోత్సహిస్త	-11.1031
▁ఇవ్వనున్న	-11.1043
పెట్టుకో	-11.1054
స్లామ	-11.1064
ఒడిసా	-11.1066
అడుగుల	-11.1075
▁గడిచింద	-11.1076
▁బూర	-11.1082
▁మాత్రమేనన	-11.1082
▁స్మాష	-11.1096
▁ఉంచాల	-11.1103
వధి	-11.1109
పోతున్నాయ	-11.1118
▁డివిజ	-11.1124
మానవీయ	-11.1128
ేటప్పుడ	-11.1134
▁సపోర్ట	-11.1144
▁సెల్ఫ	-11.1177
▁వెద	-11.1184
అల్లరి	-11.1191
▁గౌరవించాల	-11.1193
▁పరిచ	-11.1201
▁ఆంబ్ర	-11.1206
▁మినిస్ట	-11.1232
▁నిలిపివేయ	-11.1233
▁మనిష	-11.1242
ీకరిస్తాం	-11.1269
▁ప్రమాదమ	-11.1271
▁అనుమతిస్త	-11.1284
▁కార్యాలయాల	-11.1286
▁చోటుచేసుకుంద	-11.1294
పట్టింద	-11.1295
▁పాల్పడ్డ	-11.13
ిస్తానన	-11.1302
▁నష్టపోయి	-11.1312
▁పెరిగాయ	-11.1323
రిక్షా	-11.1326
▁వెళ్లనుంద	-11.1372
న్నాడన్నద	-11.1408
▁వేధించార	-11.1424
▁అఫిడవిట్ల	-11.1425
▁కనిపించలేద	-11.1435
గలరన	-11.1442
▁ఘోర	-11.1444
▁ఆడిట	-11.1445
▁ఛార్	-11.148
▁ప్రతిపాదించిన	-11.1481
▁గోండ	-11.1481
▁వెళ్లిపో	-11.1484
యాంక	-11.1494
▁మాంచ	-11.15
▁నియామకాల	-11.1501
ిర్వాణ	-11.1504
కర్ణి	-11.1506
▁రంగరాజ	-11.1539
ుమ్మడి	-11.1543
సంధ్య	-11.1545
ిలియన్	-11.1556
▁ఊరిస్త	-11.1574
▁ఫైట	-11.1587
▁కోర్సుల	-11.1591
సిస్టర్	-11.1638
▁పార్వ	-11.1639
▁ఎదిగింద	-11.1641
టిస్ట	-11.1656
▁డాంగ	-11.1662
▁నర్స	-11.1687
▁చేపట్టడం	-11.1698
నవ్వుల	-11.1707
▁కార్డ	-11.1733
▁దీప్త	-11.1739
▁నటించాన	-11.1741
చినట్లే	-11.1755
ింగర్	-11.1766
▁తెరకెక్కనుంద	-11.1778
▁పెన్స	-11.1779
▁చేస్తాయన	-11.1783
▁విజయవంతమై	-11.1785
▁ఉల్లంఘించిన	-11.1819
▁ఇప్పట	-11.1824
మ్ముకున్న	-11.1843
▁అవుతార	-11.1843
▁పుట్టడం	-11.1844
ుకోలేక	-11.1855
▁విధించేందుక	-11.1878
▁సిద్ధమ	-11.1881
▁శ్రీకర	-11.1882
ఇంగ్ల	-11.1883
రారం	-11.1898
▁హృదయాల	-11.19
ంగీతం	-11.1911
ెవెన్	-11.1912
▁లేట	-11.1928
▁పెంచుకోవ	-11.1943
▁చేస్తుండ	-11.1943
▁హిర	-11.1944
▁ప్రయత్నిస్తా	-11.1944
ంగళూరు	-11.1969
▁జరగనున్నాయ	-11.1982
▁జరపడ	-11.1984
ంచాల	-11.2013
▁చేపట్టాల	-11.2019
▁అకౌంట్ల	-11.2025
▁ఒప్పందాల	-11.2035
▁సూచనల	-11.2049
▁కదలికల	-11.2049
డియా	-11.2102
▁పడేశా	-11.211
ంటార	-11.2119
▁పరిమితమై	-11.2136
▁మోసాల	-11.2142
▁సమస	-11.2176
ప్పటినుంచ	-11.2184
▁ఇలియ	-11.219
▁భూమిక	-11.2196
▁వేసినట్ట	-11.2199
▁దేవేంద	-11.2205
ఫర్ట్	-11.224
▁రవిశాస్	-11.2242
థె	-11.2259
▁చెప్పేవా	-11.2265
సాము	-11.2268
▁కలుస్త	-11.2311
▁విక్రయించాలన	-11.2327
▁తేల్చింద	-11.2349
▁కనిపించాల	-11.2355
కేఎస్	-11.2375
▁సమీకరించిన	-11.2376
▁అవుత	-11.2391
▁ఆడించ	-11.2394
▁గ్గ	-11.2416
▁వేధించిన	-11.2434
▁నిలిపేసి	-11.2447
▁చేర్చాలన	-11.2468
ితాశ	-11.2481
శిష్	-11.2486
ొల్ల	-11.2494
▁ఇస్తున్నానన	-11.2508
ఖల	-11.2537
▁ప్రారంభించనున్న	-11.2557
▁పంపడం	-11.2622
▁హిమ	-11.2627
▁తెరిచ	-11.2657
▁వెల్లువెత్తుత	-11.2661
▁లాంటిద	-11.2671
ందుల	-11.2681
▁అభిప్రాయపడ	-11.2708
▁మరణించడం	-11.2733
▁తగ్గించడ	-11.2765
ఏసు	-11.2795
ెడతాం	-11.281
ాంచీ	-11.2828
జేయ	-11.2836
▁ఆరంభమై	-11.2855
▁ఉత్తర్వు	-11.2858
జిసి	-11.2863
విందు	-11.2866
▁హన్స	-11.2885
▁ఆటోమ	-11.2986
పడ్డార	-11.3008
▁చెల్లింపు	-11.3073
▁చేయాల్సింద	-11.3111
▁ఉంచుక	-11.315
▁అయిపోత	-11.316
▁సిక్స	-11.3221
▁మేజ	-11.3222
▁సెప్టెంబ	-11.3238
భిన్నమైన	-11.3282
ెజె	-11.3282
‘	-11.3309
▁అవసర	-11.3409
ుకోవ	-11.3413
▁హృదయ	-11.3426
▁రాసుకున	-11.3436
ఫిక్	-11.3451
మహానట	-11.3468
▁పెరుగుతున్నాయ	-11.3475
▁తెలియజేస్తున్నా	-11.3515
▁దిగనున్నా	-11.3517
▁నియామక	-11.3517
▁ఫెడ	-11.3533
▁అత్యాచారాల	-11.354
గృహం	-11.3549
భుత్వం	-11.3566
▁కుట్రల	-11.359
పాలిట	-11.3627
▁పెట్టుకున్నాడ	-11.3678
▁ప్రారంభిస్త	-11.3709
▁ఫీచర్	-11.3719
▁చిక్క	-11.3762
ంచడంతో	-11.3788
ోస్ట్	-11.3794
▁ప్రయత్నిస్త	-11.3826
▁పౌర	-11.3855
ెర్జ	-11.3894
▁పర్యటించార	-11.3914
▁చెప్పేద	-11.3923
్వాణీ	-11.3927
ఛార్జ	-11.3932
హేల	-11.3938
▁మాట్లాడుకున	-11.3955
▁లభించడ	-11.3963
▁అఫిడవిట్	-11.4007
▁సోల	-11.4035
▁ముగియనుం	-11.4037
పాలయ్యా	-11.4096
▁ప్రోత్సహ	-11.4141
▁గమనిస్త	-11.4145
నమ్మకాల	-11.4163
▁ఎందుక	-11.418
▁ఛార్జీ	-11.4205
▁లావాదేవీ	-11.4218
మోద	-11.4219
మాయిల	-11.4292
ుపట్టణ	-11.437
సుబ్రమణ్యం	-11.4376
▁పెంచుత	-11.4381
ేరుగా	-11.4396
▁దుష్	-11.4396
ఫోర్	-11.4445
▁వేళల	-11.4459
▁గడిచి	-11.4476
▁కథానాయకు	-11.4519
▁నిర్ణయించినట్	-11.4542
▁శంక	-11.458
▁పిలిచే	-11.4591
డ్రన్	-11.463
▁మేఘా	-11.4636
ుంటున్న	-11.4655
▁మైదాన	-11.4705
▁పెరుగుత	-11.4716
▁తిరిగ	-11.4724
ొడ్డి	-11.4763
▁వార్షికోత్స	-11.4818
పడుతున్నాయ	-11.4828
▁అమలవుత	-11.4842
గ్రూపు	-11.4845
నాయకుడి	-11.4847
యాగం	-11.4883
▁నిర్బంధ	-11.493
▁బయటక	-11.4947
▁పాల్గొనాల	-11.4951
▁అర్హు	-11.4965
▁కలుసుకు	-11.4982
▁ఖర్చ	-11.5039
ాధ్యక్షుడ	-11.505
ించకుండా	-11.5065
▁వర్తించ	-11.5078
సిందే	-11.5082
▁వదులుక	-11.5094
▁కాంట్రాక్ట	-11.5105
▁సంకేత	-11.5112
▁సుప్ర	-11.5116
ండటమే	-11.512
▁చెప్పుకోవ	-11.5128
పరచడం	-11.5132
ప్రతిష్ఠల	-11.5136
▁వ్యక్తిత్వ	-11.5149
▁గట్టెక్క	-11.5152
▁ఆస్ర్టేలియ	-11.5158
▁ఉద్దేశ	-11.5162
ూసేయాల	-11.5163
▁వెలువ	-11.5178
▁మార్చుకున	-11.5179
ుతుండడం	-11.5184
▁విద్యుత	-11.5184
బిడ్డ	-11.5187
▁స్పోర్ట	-11.5191
▁బదుల	-11.5198
▁తగ్గించింద	-11.5201
▁నేర్చుకో	-11.5206
▁చిత్త	-11.5215
▁పుట్టినరోజ	-11.5217
▁నాయుడ	-11.5219
రేపుతున్నా	-11.5224
▁శ్రేణ	-11.5231
▁ధోరణ	-11.5237
▁నెలకొంద	-11.5239
▁ఉపాధ్యాయ	-11.5244
▁జరిగాయ	-11.5245
▁నాయకత్వ	-11.5246
▁సంధి	-11.5248
పడుతున్నార	-11.5267
▁మృత	-11.5268
▁ఏడాద	-11.5271
▁ఉన్నతాధికార	-11.5277
కుమార	-11.5281
గడ్డ	-11.5286
▁చిత్రీకరిస్తార	-11.5291
▁మేళవిం	-11.5302
పరిపాలన	-11.5306
అబుదాబి	-11.5306
కళ్యాణ	-11.5306
క్లూజన్	-11.5306
మెట్రో	-11.5306
మహేంద్ర	-11.5306
ఇంట్రాడే	-11.531
ముగిసే	-11.531
పథంలో	-11.531
నిజాయితీ	-11.531
భక్తి	-11.531
నిస్తేజం	-11.531
గోదావరి	-11.5312
సీపీ	-11.5312
శక్తి	-11.5312
ఎస్పీ	-11.5313
రైజ	-11.5313
వంశీ	-11.5314
భూమి	-11.5314
▁క్షురక	-11.5315
బ్రహ్మ	-11.5315
రంగస్థల	-11.5315
మార్గం	-11.5316
ొలినా	-11.5316
అమ్మాయిల	-11.5316
సమాజం	-11.5316
రామకృష్ణ	-11.5316
నిషేధ	-11.5317
కార్తీ	-11.5317
వినియోగం	-11.5317
దేవిశ్రీ	-11.5317
జీవితం	-11.5318
తరహా	-11.5318
ఒలింపిక్	-11.5318
చికిత్స	-11.5318
▁మేధావ	-11.5318
చేనేత	-11.5318
నిరోధ	-11.5318
ఇస్లామ	-11.5318
డీఎంకే	-11.5319
ఊ	-11.5319
వాషింగ్ట	-11.5319
సంఖ్య	-11.5319
మహిళ	-11.532
గవర్నర్	-11.532
తెలియ	-11.532
ముగ్గుర	-11.532
అహ్మద	-11.532
అత్యంత	-11.532
కాల్పుల	-11.5321
తెలంగాణ	-11.5321
బెంగళూరు	-11.5321
జాతీయ	-11.5321
ఉదయ	-11.5321
భాగంగా	-11.5321
ఇందులో	-11.5321
నిర్ణయం	-11.5321
బోర్డు	-11.5321
కుటుంబ	-11.5321
సుప్రీంకోర్టు	-11.5322
అమెరికా	-11.5322
సంస్థ	-11.5322
ప్రస్తుత	-11.5322
తొలి	-11.5322
పార్టీ	-11.5322
ఫోన్	-11.5323
మెడిక	-11.5323
▁మూటగట్టుక	-11.5324
బీజేపీ	-11.5324
త్వరలో	-11.5324
▁నడిపి	-11.5326
చివర	-11.5327
▁దర్శకత్వ	-11.5328
స్కూల్	-11.533
ంతువు	-11.5331
▁చదువుక	-11.5333
చర్యల	-11.5336
▁హయాం	-11.5337
▁డాక్ట	-11.5338
▁క్షీణ	-11.5343
విషయాలన	-11.5345
చుకోవాలన్న	-11.5346
▁ఆవిష్కరించ	-11.5349
▁క్యారెక్ట	-11.535
▁కాంగ్రె	-11.5351
పారేశా	-11.5351
మంత్రిత్వ	-11.5352
సంపూర్ణ	-11.5353
▁సామాన్య	-11.5357
▁దూరమవుత	-11.5358
▁సందర్శ	-11.5362
స్థలం	-11.5366
ించలేదు	-11.5372
▁వక్త	-11.5373
హిష్క	-11.5378
చార్జ	-11.5381
▁ఇందిర	-11.5382
▁సుష్మ	-11.5383
▁తల్ల	-11.5385
మెరుగ	-11.5386
భ్యత	-11.5392
టస్థ	-11.5392
పొందుత	-11.5393
▁గాయపడి	-11.5398
▁కోహ్ల	-11.54
వెలుగు	-11.54
▁రాష్ర్ట	-11.5401
▁విలేకర	-11.5407
▁చదివ	-11.5408
పోవాల్సి	-11.5409
గ్రహ	-11.5411
వసరాల	-11.5418
ుకుందామన	-11.5419
న్నివేశాల	-11.5419
▁దెబ్బతీస	-11.5421
రంగేట్రం	-11.5423
శ్రీరామ	-11.5424
పక్షపాత	-11.5424
▁అడ్డం	-11.5424
వర్ణాల	-11.5429
▁ప్రాంగణ	-11.5432
▁సురక్ష	-11.5432
▁చట్టసభ	-11.5435
ైవాన్	-11.5435
ద్దేశించి	-11.5435
నటీనటుల	-11.5435
త్పత్తుల	-11.5435
▁అదరగొ	-11.5435
▁విద్యాసాగర	-11.5436
▁హనుమంత	-11.5436
వందే	-11.5437
ార్జున	-11.5437
నిరూపణ	-11.5437
▁కన్వర్టబుల	-11.5437
ాభిమాన	-11.5437
కారిణ	-11.5438
ంప్రదాయా	-11.5438
చైనాభ	-11.5438
సింహారెడ్డి	-11.5438
▁వేంకట	-11.5438
రియెంట	-11.5438
ావస్థలో	-11.5438
▁ఏకీభవి	-11.5438
▁కప్పిపుచ్చ	-11.5438
▁విభజించ	-11.5438
▁సంప్రదించ	-11.5438
ఉవ్విళ్లూరుతున్న	-11.5438
పట్టత్తు	-11.5438
వెంకటా	-11.5438
ింపచేయ	-11.5438
ిఫిషియ	-11.5438
▁ఇవాంకా	-11.5438
▁కలుసుకో	-11.5438
▁చేజార్చుకు	-11.5438
▁డొమిన	-11.5438
▁తిరస్కరణ	-11.5438
▁తీసుకెళ్తా	-11.5438
▁పదవీచ్యుత	-11.5438
▁పరిష్కరిస్తా	-11.5438
▁పర్ఫార్మ	-11.5438
▁మర్చిపో	-11.5438
▁ముంచెత్త	-11.5438
▁మూడున్నరేళ్ల	-11.5438
▁మృతశిశువు	-11.5438
▁రెవెన్యూ	-11.5438
▁లక్సెం	-11.5438
▁లైసెన్స	-11.5438
▁వెలికితీ	-11.5438
▁సెలేరియో	-11.5438
▁స్తంభించిపో	-11.5438
అంకితమిస్తున్నాన	-11.5438
ఆహ్లాద	-11.5438
డీవోపీటీ	-11.5438
తిరస్కరిస్తున్నా	-11.5438
పూర్వవిద్యార్థుల	-11.5438
మహాభాగ్యం	-11.5438
వర్సిటీ	-11.5438
విశ్వరూపం	-11.5438
స్తబ్ధ	-11.5438
స్మరణీయ	-11.5438
ాడికలైజ	-11.5438
▁అంతర్భాగ	-11.5438
▁అంధురాలి	-11.5438
▁అక్షింతలు	-11.5438
▁అడగాలనుకుంటున్న	-11.5438
▁అనవసరం	-11.5438
▁అనారోగ్య	-11.5438
▁అనుకూలించ	-11.5438
▁అనుమతివ్వలేద	-11.5438
▁అప్రమత్తమై	-11.5438
▁అప్లికేషన్	-11.5438
▁అమితానందం	-11.5438
▁అమ్మఒడి	-11.5438
▁అవమానించారన	-11.5438
▁అవస్థి	-11.5438
▁ఆకస్మిక	-11.5438
▁ఆగ్నేయాసియా	-11.5438
▁ఆత్మవిశ్వాస	-11.5438
▁ఆవిర్భవించి	-11.5438
▁ఆవిష్కరిస్తా	-11.5438
▁ఆహూతుల	-11.5438
▁ఇన్నోవేటివ్	-11.5438
▁ఈశ్వరీరావ	-11.5438
▁ఉగ్రదాడుల	-11.5438
▁ఉత్తీర్ణులైన	-11.5438
▁ఎంబీఎంసీ	-11.5438
▁ఎగరేసుకుపో	-11.5438
▁ఎగవేత	-11.5438
▁ఎగవేసిన	-11.5438
▁ఎగుమతుల	-11.5438
▁ఎమ్మెల్సీ	-11.5438
▁ఎల్టీటీఈ	-11.5438
▁ఏరోసిటీ	-11.5438
▁ఐడెంటిఫ	-11.5438
▁ఐపిపిబి	-11.5438
▁ఒకడుండేవాడు	-11.5438
▁కనుసన్నల్లో	-11.5438
▁కళంకితుల	-11.5438
▁కార్బైన్	-11.5438
▁కాలకృత్యాల	-11.5438
▁కుంటుపడ	-11.5438
▁కోయంబత్తూర	-11.5438
▁క్రమబద్ధీకరణ	-11.5438
▁క్రూరత్వ	-11.5438
▁క్షణాలలో	-11.5438
▁ఖుష్బూ	-11.5438
▁గర్వకారణ	-11.5438
▁గురవుతూ	-11.5438
▁ఘనవిజయ	-11.5438
▁చాచాజీ	-11.5438
▁చారిత్రక	-11.5438
▁చుక్కెదుర	-11.5438
▁చూద్దామ	-11.5438
▁చూరగొ	-11.5438
▁చేకూరుస్త	-11.5438
▁చేపలవేట	-11.5438
▁జరుపుకున్నా	-11.5438
▁జీర్ణించుక	-11.5438
▁జీవనాధారం	-11.5438
▁జూలైసెప్టెంబరు	-11.5438
▁జెనరిక్	-11.5438
▁జ్ఞాపక	-11.5438
▁డిస్ట్రిబ్యూట	-11.5438
▁డిస్ర్టిబ్యూ	-11.5438
▁తరిమికొట్ట	-11.5438
▁తిరిగొస్త	-11.5438
▁దారితీసిన	-11.5438
▁దుండగుల	-11.5438
▁దురదృష్టకర	-11.5438
▁దుర్మార్గు	-11.5438
▁దృశ్య	-11.5438
▁దెయ్యం	-11.5438
▁దేశాధినేతల	-11.5438
▁నిట్టూర్	-11.5438
▁నియంత్రిస్త	-11.5438
▁నిర్వర్తించిన	-11.5438
▁నిస్పృహ	-11.5438
▁పరామర్శించ	-11.5438
▁పర్యవసాన	-11.5438
▁పర్యవేక్షణలో	-11.5438
▁పర్యవేక్షిస్త	-11.5438
▁పాండిచ్చేరి	-11.5438
▁పాఠమవుతుంద	-11.5438
▁పింఛన	-11.5438
▁పృథ్వ	-11.5438
▁ప్రథమార్ధం	-11.5438
▁ప్రభంజన	-11.5438
▁ప్రవర్తించార	-11.5438
▁ప్రస్ఫుటం	-11.5438
▁ప్రాణాంతక	-11.5438
▁ప్రివ్యూ	-11.5438
▁ప్రొడక్ట్	-11.5438
▁ప్రొవైడర్ల	-11.5438
▁ఫార్ములేషన్	-11.5438
▁ఫోరె	-11.5438
▁ఫ్లెక్సీ	-11.5438
▁బంగళా	-11.5438
▁బయటికొచ్చ	-11.5438
▁బహూకరించ	-11.5438
▁బెంగుళూరు	-11.5438
▁బెదిరింపు	-11.5438
▁బెళగావి	-11.5438
▁భాగల్పూరు	-11.5438
▁మద్దతిస్తామన	-11.5438
▁మరువలేను	-11.5438
▁మాడ్యూల్	-11.5438
▁మావోయిస్టు	-11.5438
▁ముందుకెళ్త	-11.5438
▁ముద్దులొల	-11.5438
▁మృతిచెందిన	-11.5438
▁మెళకువల	-11.5438
▁మొదలెట్టి	-11.5438
▁యథాతథ	-11.5438
▁యెలహంక	-11.5438
▁రమాసుందరి	-11.5438
▁రితుపర్ణ	-11.5438
▁రిబేటు	-11.5438
▁రెచ్చిపోత	-11.5438
▁లూధియానా	-11.5438
▁లెజొనెవా	-11.5438
▁లెజ్నెవా	-11.5438
▁లొకేషన్	-11.5438
▁వక్రగతిలో	-11.5438
▁వికలాంగుల	-11.5438
▁విధివిధానాల	-11.5438
▁విభేదాల	-11.5438
▁వియెన్నా	-11.5438
▁విసర్జన	-11.5438
▁విసురుకున్నార	-11.5438
▁వెలవెలబోతోంద	-11.5438
▁వేరొకర	-11.5438
▁వైఫల్యాల	-11.5438
▁వ్యవస్థీకృతం	-11.5438
▁శాంతియుత	-11.5438
▁శివమొగ్గ	-11.5438
▁శ్వేతసౌధం	-11.5438
▁షహజాద	-11.5438
▁సత్కరించ	-11.5438
▁సత్కరిస్తా	-11.5438
▁సత్సంబంధాల	-11.5438
▁సహకరిస్తానన	-11.5438
▁సాక్ష్యాల	-11.5438
▁సాహసోపేత	-11.5438
▁సిగిరెట్	-11.5438
▁సిరిసిల్ల	-11.5438
▁స్కోరర్	-11.5438
▁స్థాపించ	-11.5438
▁స్పెషాలిటీ	-11.5438
▁హన్మకొండ	-11.5438
▁హాజరయ్యాన	-11.5438
▁హెచ్చార్సీ	-11.5438
▁అచ్చు	-11.5438
▁అర్థాంతర	-11.5438
▁కస్టడీ	-11.5438
▁కామ్రేడ్	-11.5438
▁కితాబిచ్చా	-11.5438
▁జూబ్లీ	-11.5438
▁టాయిలెట్ల	-11.5438
▁తగ్గుదల	-11.5438
▁దిగుమతుల	-11.5438
▁పలుకుతున్నారన	-11.5438
▁ప్రజాదరణ	-11.5438
▁ప్రత్యూష	-11.5438
▁మనస్తత్వం	-11.5438
▁మిషెల్	-11.5438
▁మెరైన్	-11.5438
▁మోయాల్సిందే	-11.5438
▁వాసుదేవ	-11.5438
▁వేరియెంట్ల	-11.5438
▁సెన్సేషన	-11.5438
బాడీగార్డ	-11.5438
సీఆర్డీయే	-11.5438
▁అంగీకరిస్తున్న	-11.5438
▁అధిష్ఠానం	-11.5438
▁అనుకొన్న	-11.5438
▁అర్జెంటీనా	-11.5438
▁అవమానించి	-11.5438
▁ఆతిథ్యమివ్వ	-11.5438
▁ఆసీనులయ్యార	-11.5438
▁ఇబ్రహీం	-11.5438
▁కణితి	-11.5438
▁కదలాడ	-11.5438
▁కొద్దికొద్దిగా	-11.5438
▁ఖాతాదారుడి	-11.5438
▁గిలానీ	-11.5438
▁గ్రహీత	-11.5438
▁జగన్నాధ	-11.5438
▁జేఏసీ	-11.5438
▁తలదించుకోవ	-11.5438
▁దళితవర్గ	-11.5438
▁దుష్ప్రచార	-11.5438
▁దుస్థితి	-11.5438
▁నిర్వర్తిస్తు	-11.5438
▁పద్మజ	-11.5438
▁పర్యవేక్షిం	-11.5438
▁పునరాగమన	-11.5438
▁ప్రజాభిప్రాయ	-11.5438
▁ప్రస్తావన	-11.5438
▁ఫెరార	-11.5438
▁బురఖా	-11.5438
▁భౌతిక	-11.5438
▁మమ్ముట్టి	-11.5438
▁మారుమోగ	-11.5438
▁మిశ్రమ	-11.5438
▁ముందుకెళ్ల	-11.5438
▁మూయించ	-11.5438
▁మెట్లెక్కిన	-11.5438
▁మేజిస్ట్రే	-11.5438
▁రామానుజ	-11.5438
▁రాసుకొచ్చ	-11.5438
▁రూపకల్పన	-11.5438
▁లాగించేస్త	-11.5438
▁లావేటిపాల	-11.5438
▁లొంగిపో	-11.5438
▁విడిపోయ	-11.5438
▁విస్మరిస్త	-11.5438
▁వైజయంతీ	-11.5438
▁వైదొలిగా	-11.5438
▁శక్తిమంతులైన	-11.5438
▁శుక్రవారమ	-11.5438
▁సంపర్కులు	-11.5438
▁సంప్రదిస్తున్న	-11.5438
▁సత్ఫలితాల	-11.5438
▁సాధించలేకపోయామ	-11.5438
▁సీవోఏ	-11.5438
▁సెలబ్రే	-11.5438
▁స్లొవే	-11.5438
కోదండరామ	-11.5438
క్చరర్	-11.5438
▁ఇనుమడి	-11.5438
▁ఎదగాల	-11.5438
▁ఐపిఒ	-11.5438
▁గాలిపట	-11.5438
▁చేరుకోగా	-11.5438
▁తినిపించ	-11.5438
▁తుదిపోరు	-11.5438
▁దర్శనమివ్వ	-11.5438
▁ధృవ	-11.5438
▁ధ్వజ	-11.5438
▁నవసరి	-11.5438
▁నృత్య	-11.5438
▁ప్రాసిక్యూ	-11.5438
▁భీమవర	-11.5438
▁మల్టీస్టారర్	-11.5438
▁మురిపించ	-11.5438
▁రాజకీయనాయకు	-11.5438
▁సరిదిద్ద	-11.5438
▁స్పెక్ట	-11.5438
▁అవతరించ	-11.5438
▁ఆగిపోయాయి	-11.5438
▁ఊపిరి	-11.5438
▁కేటాయిస్త	-11.5438
▁గణేశన	-11.5438
▁గాలింపు	-11.5438
▁జనార్థన	-11.5438
▁దక్కబోతున్న	-11.5438
▁బురద	-11.5438
▁మద్దతిచ్చ	-11.5438
▁వారసురాలి	-11.5438
▁విసురుత	-11.5438
▁శూన్య	-11.5438
▁సన్మానం	-11.5438
▁సబ్జెక్టు	-11.5438
▁సేనాపతి	-11.5438
▁సౌజన్య	-11.5438
▁చాలెంజర్	-11.5438
▁నమోదైన	-11.5438
▁కమ్యూనికేషన్	-11.5438
▁జెనీవా	-11.5438
▁నల్లజర్ల	-11.5438
▁నాయకానాయ	-11.5438
▁పరిమళ	-11.5438
▁పిజ్జా	-11.5438
▁పీడకల	-11.5438
▁పురుషా	-11.5438
▁రాధాకృష్ణ	-11.5438
▁విద్యాసంస్థల	-11.5438
▁సన్మానించా	-11.5438
▁సాక్షులు	-11.5438
▁అంతమొంది	-11.5438
▁చూడాలిమరి	-11.5438
▁చెరిపేసి	-11.5438
▁నిలుచున్నా	-11.5438
▁పుచ్చుకున	-11.5438
▁మృగ్యమ	-11.5438
▁హత్తుకుంట	-11.5438
▁ఎగువ	-11.5438
▁ఎమ్మార్	-11.5438
▁ఐపీవో	-11.5438
▁చందమామ	-11.5438
▁నివారణ	-11.5438
▁ఫోరం	-11.5438
▁విజయవంతమయ్యా	-11.5438
▁హర్షణీయ	-11.5438
▁ఆరేళ్ళు	-11.5438
▁చర్చిస్తామన	-11.5438
▁రాశుల	-11.5438
▁ఎన్జీవో	-11.5438
▁చదువుతో	-11.5438
▁నఖ్వీ	-11.5438
▁నర్తించ	-11.5438
▁నియంతృత్వ	-11.5438
▁సమావేశపరచ	-11.5438
▁స్మరించుక	-11.5438
ాచార్య	-11.5438
▁కలుగుతోంద	-11.5438
▁పోషక	-11.5438
▁బెహరా	-11.5438
▁మామిడి	-11.5438
▁రెండోటెస్టు	-11.5438
▁లడ్డూ	-11.5438
▁కాగిత	-11.5438
▁పాతిపెట్ట	-11.5438
▁పెర్ఫా	-11.5438
▁బౌండ	-11.5438
బిచ్చగాడు	-11.5438
శివకుమారస్వామిజీ	-11.5438
▁నిలదొక్కుక	-11.5438
▁వదిలేయడ	-11.5438
▁వధువు	-11.5438
శంభో	-11.5438
ోగ్యం	-11.5438
▁ఎదగడ	-11.5438
▁కన్నుమూ	-11.5438
▁మండిపడి	-11.5438
▁లూథర	-11.5438
▁వాగుల్లో	-11.5438
▁సుదీర్మన	-11.5438
▁చిన్నవాడా	-11.5438
▁ఉండబోద	-11.5438
▁తెలియజేయాలన	-11.5438
▁నేరస్థులందర	-11.5438
▁గడ్డకట్ట	-11.5438
▁గుణపాఠమవుతుంద	-11.5438
▁గెలుస్తుంద	-11.5438
▁చక్కబడ	-11.5438
▁చుంబించి	-11.5438
▁గన్నవర	-11.5438
▁పరిశీలక	-11.5438
▁కొల్లగొట్టా	-11.5438
▁దుబ్బుల	-11.5438
▁వాక్యం	-11.5438
▁ఎక్కడెక్కడ	-11.5438
▁ఎదిరించ	-11.5438
▁కట్టబెట్టారన	-11.5438
▁దృక్	-11.5438
▁ఉద్దేశపూర్వకంగా	-11.5438
▁కుదిరాయ	-11.5438
▁డిసైడ	-11.5438
▁మెమరీ	-11.5438
▁తెలియజేసింద	-11.5438
▁అప్పగిస్త	-11.5438
▁పడోసీ	-11.5438
▁అభిమత	-11.5438
▁ఏర్పరచుక	-11.5438
ఞ	-13.4473
ఛ	-13.4474
